<pad>
<s>
</s>
<nl>
<unk>
<mask>
!
"
#
$
%
&
'
(
)
*
+
,
-
.
/
0
1
2
3
4
5
6
7
8
9
:
;
<
=
>
?
@
[
\
]
^
_
`
a
b
c
d
e
f
g
h
i
j
k
l
m
n
o
p
q
r
s
t
u
v
w
x
y
z
{
|
}
~
£
¤
¥
§
©
®
°
æ
ð
÷
ø
þ
đ
ŋ
œ
ȝ
ɔ
ə
ɛ
ʃ
ʔ
ʕ
ʖ
˂
˃
ˇ
ˉ
ˊ
ˋ
α
β
γ
δ
ε
ζ
η
θ
ι
κ
λ
μ
ξ
ο
π
ρ
ς
σ
τ
υ
φ
ψ
ω
а
б
в
г
д
е
ж
и
к
л
м
н
о
п
р
с
т
у
ф
х
ц
ч
ш
щ
ы
э
ю
я
і
ғ
қ
ң
ү
ұ
ә
ө
ա
ե
ի
ն
ո
ր
ւ
א
ב
ג
ד
ה
ו
ז
ח
ט
י
כ
ל
ם
מ
ן
נ
ס
ע
פ
ק
ר
ש
ת
ا
ب
ة
ت
ج
ح
خ
د
ذ
ر
ز
س
ش
ص
ط
ع
ف
ق
ك
ل
م
ن
ه
و
ى
ي
٥
٩
ڡ
ک
ی
۳
۶
ः
अ
आ
क
ख
ग
च
ज
ट
ड
ण
त
थ
द
ध
न
प
ब
भ
म
य
र
ल
व
श
ष
स
ह
ा
ि
ी
ो
।
ক
ন
র
া
ি
ে
ਕ
ਚ
ਤ
ਦ
ਨ
ਮ
ਰ
ਲ
ਵ
ਸ
ਹ
ਾ
ਿ
ੀ
੭
இ
க
த
ன
ப
ம
ர
ல
வ
ா
ி
ு
௰
థ
౪
ಠ
ಥ
ก
ข
ค
ฅ
ง
จ
ช
ด
ต
ท
น
บ
ป
พ
ม
ย
ร
ล
ว
ส
ห
อ
ะ
า
เ
แ
ใ
ไ
๑
๓
ນ
າ
་
།
༎
ཀ
ཁ
ག
ང
ཅ
ཏ
ད
ན
པ
བ
མ
ཞ
འ
ར
ལ
ས
࿒
ა
ბ
ე
ვ
ი
მ
ნ
ო
რ
ს
ᄀ
ᄁ
ᄂ
ᄃ
ᄄ
ᄅ
ᄆ
ᄇ
ᄈ
ᄉ
ᄊ
ᄋ
ᄌ
ᄍ
ᄎ
ᄏ
ᄐ
ᄑ
ᄒ
ᅌ
ᅡ
ᅢ
ᅣ
ᅥ
ᅦ
ᅧ
ᅨ
ᅩ
ᅪ
ᅫ
ᅬ
ᅭ
ᅮ
ᅯ
ᅱ
ᅲ
ᅳ
ᅴ
ᅵ
ᆨ
ᆫ
ᆭ
ᆮ
ᆯ
ᆷ
ᆸ
ᆹ
ᆺ
ᆻ
ᆼ
ᆽ
ᆾ
ᇀ
ᇁ
ᇂ
ᐛ
ᴗ
ᴥ
‖
†
‡
※
‿
⁍
₹
←
↑
→
↓
↵
∀
∂
∆
∇
∈
∑
∠
∥
∩
∫
≈
≡
≤
≥
⊂
⊙
⌑
⑉
━
┐
├
┬
┴
┻
┼
═
╥
╭
╮
╯
╰
╹
▄
▅
█
░
▓
■
□
▲
△
►
▼
▽
◆
◇
◉
◍
◎
●
◐
◕
◞
◟
◤
◾
☀
☁
☕
☘
☝
☹
☺
♀
♂
♈
♕
♥
♦
♪
⚡
⚪
✈
✋
✌
✏
✓
✗
✨
❄
⠄
⣿
⭐
⸝
、
。
〃
々
《
》
「
」
『
』
〒
〰
あ
い
う
え
お
か
き
く
け
こ
さ
し
す
せ
そ
た
ち
つ
て
と
な
に
ぬ
ね
の
は
ひ
ふ
へ
ほ
ま
み
む
め
も
や
ゆ
よ
ら
り
る
れ
ろ
わ
を
ん
ゝ
ア
イ
ウ
エ
オ
カ
キ
ク
ケ
コ
サ
シ
ス
セ
ソ
タ
チ
ツ
テ
ト
ナ
ニ
ヌ
ネ
ノ
ハ
ヒ
フ
ヘ
ホ
マ
ミ
ム
メ
モ
ヤ
ユ
ヨ
ラ
リ
ル
レ
ロ
ワ
ヲ
ン
ヶ
ー
ヽ
ㄅ
ㄆ
ㄇ
ㄈ
ㄉ
ㄊ
ㄋ
ㄌ
ㄍ
ㄎ
ㄏ
ㄐ
ㄑ
ㄒ
ㄓ
ㄔ
ㄕ
ㄖ
ㄗ
ㄘ
ㄙ
ㄚ
ㄛ
ㄜ
ㄝ
ㄞ
ㄟ
ㄠ
ㄡ
ㄢ
ㄣ
ㄤ
ㄥ
ㄦ
ㄧ
ㄨ
ㄩ
ㄱ
㷫
一
丁
七
丈
三
上
下
不
丐
丑
且
丕
世
丘
丙
丞
丟
並
丫
中
串
丶
丸
丹
主
丼
乂
乃
久
之
乍
乎
乏
乒
乓
乖
乘
乙
乜
九
乞
也
乩
乳
乸
乾
亂
了
予
事
二
于
云
互
五
井
亙
些
亞
亟
亡
亢
交
亥
亦
亨
享
京
亭
亮
亳
人
亻
仁
仄
仆
仇
今
介
仍
仔
仕
他
仗
付
仙
代
令
以
仰
仲
仵
件
任
份
仿
企
伉
伊
伍
伎
伏
伐
休
伕
伙
伝
伯
估
伴
伶
伸
伺
似
伽
佃
但
佇
佈
位
低
住
佐
佑
佔
何
佘
余
佚
佛
作
佟
你
佢
佣
佩
佬
佯
佳
併
佻
佼
使
侃
來
侈
例
侍
侏
侑
侖
侗
供
依
侮
侯
侵
侶
侷
便
俁
係
促
俄
俊
俏
俐
俑
俗
俘
俚
保
俞
俠
信
俬
修
俯
俱
俳
俵
俸
俺
俾
倆
倉
個
倌
倍
們
倒
倔
倖
倘
候
倚
借
倡
倦
倩
倪
倫
倬
倭
值
偃
假
偈
偉
偌
偎
偏
偕
做
停
健
偲
側
偵
偶
偷
偽
傀
傅
傑
傘
備
傚
催
傭
傲
傳
債
傷
傻
傾
僅
僉
働
像
僑
僕
僖
僚
僥
僧
僭
僮
僱
僵
價
僻
儀
儂
億
儉
儒
儕
償
儡
優
儲
儷
儸
儼
兀
允
元
兄
充
兆
兇
先
光
克
兌
免
兒
兔
兗
兜
兢
入
內
全
兩
八
公
六
兮
共
兵
其
具
典
兼
冀
円
冉
冊
再
冒
冕
冗
冠
冢
冤
冥
冧
冫
冬
冰
冶
冷
冼
准
凋
凌
凍
凜
凝
几
凡
凪
凰
凱
凳
凶
凸
凹
出
函
刀
刁
刂
刃
分
切
刈
刊
刑
划
列
初
判
別
刨
利
刪
刮
到
制
刷
券
刺
刻
剁
剃
則
削
剋
剌
前
剎
剔
剖
剛
剝
剩
剪
副
割
創
剷
剽
剿
劃
劇
劈
劉
劊
劍
劏
劑
力
功
加
劣
助
努
劫
劭
劾
勁
勃
勇
勉
勒
動
勘
務
勝
勞
募
勢
勤
勳
勵
勸
勺
勻
勾
勿
包
匆
匕
化
北
匙
匠
匡
匣
匪
匯
匹
匾
匿
區
十
千
卅
升
午
卉
半
卍
卑
卒
卓
協
南
博
卜
卞
占
卡
卦
卯
印
危
即
卵
卷
卸
卻
卿
厄
厚
厝
原
厥
厭
厲
去
參
又
叉
及
友
反
叔
取
受
叛
叟
叢
口
古
句
另
叨
叩
只
叫
召
叭
叮
可
台
叱
史
右
叵
司
叻
叼
吃
各
合
吉
吊
同
名
后
吏
吐
向
吒
吔
君
吝
吞
吟
吠
吡
否
吧
吩
含
吭
吮
吱
吳
吵
吶
吸
吹
吻
吼
吽
吾
呀
呂
呃
呆
呈
告
呍
呎
呔
呢
呤
呦
周
味
呵
呷
呸
呻
呼
命
咁
咄
咆
咇
和
咎
咐
咒
咔
咕
咖
咚
咦
咧
咩
咪
咫
咬
咭
咯
咱
咳
咸
咻
咽
哀
品
哄
哆
哇
哈
哉
哎
員
哥
哦
哨
哩
哪
哭
哮
哲
哺
哼
哽
唁
唄
唆
唉
唏
唐
唑
唔
唧
售
唯
唱
唷
唻
唾
啃
啄
啅
商
啊
啋
問
啖
啜
啞
啟
啡
啤
啥
啦
啪
啱
啲
啵
啶
啷
啼
啾
喀
喂
喃
善
喇
喉
喊
喋
喎
喔
喘
喙
喚
喜
喝
喧
喪
喬
單
喱
喳
喵
喻
嗅
嗆
嗇
嗌
嗎
嗑
嗒
嗓
嗔
嗚
嗜
嗝
嗟
嗡
嗣
嗤
嗦
嗨
嗯
嗲
嗶
嗷
嗽
嘅
嘈
嘉
嘌
嘍
嘎
嘔
嘖
嘗
嘛
嘜
嘟
嘥
嘩
嘭
嘮
嘯
嘰
嘲
嘴
嘶
嘻
嘿
噁
噃
噌
噎
噏
噓
噗
噚
噠
噢
噤
器
噩
噪
噬
噱
噴
噸
噹
噻
嚀
嚇
嚎
嚏
嚐
嚓
嚕
嚨
嚮
嚴
嚶
嚷
嚼
囂
囉
囊
囍
囑
囚
四
囝
回
因
囡
囤
囧
困
固
圈
國
圍
園
圓
圖
團
圜
土
在
圭
地
圳
圾
址
坂
均
坊
坍
坎
坐
坑
坡
坤
坦
坨
坪
坳
坷
垂
垃
型
垠
垢
垣
垮
埃
埇
埋
城
埔
埕
埗
域
埠
執
培
基
堀
堂
堅
堆
堇
堊
堡
堤
堪
堯
堰
報
場
堵
塊
塌
塑
塔
塗
塘
塞
塢
填
塱
塵
塹
境
墅
墊
墓
墜
增
墟
墨
墩
墮
墳
墾
壁
壆
壇
壓
壕
壘
壞
壟
壠
壢
壤
壩
士
壬
壯
壺
壼
壽
夏
夔
夕
外
夙
多
夜
夠
夢
夥
大
天
太
夫
夭
央
夯
失
夷
夸
夾
奀
奄
奇
奈
奉
奎
奏
奐
契
奔
奕
套
奚
奠
奢
奧
奪
奭
奮
女
奴
奶
奸
她
好
如
妃
妄
妊
妍
妒
妓
妖
妙
妝
妞
妤
妥
妨
妮
妲
妳
妹
妺
妻
妾
姆
姊
始
姍
姐
姑
姓
委
姚
姜
姝
姣
姥
姦
姨
姪
姬
姻
姿
威
娃
娑
娓
娘
娛
娜
娟
娠
娣
娥
娩
娶
娼
婁
婆
婉
婊
婕
婚
婢
婦
婪
婭
婷
婿
媒
媚
媛
媲
媳
媺
媽
媾
嫁
嫂
嫉
嫌
嫖
嫚
嫡
嫣
嫦
嫩
嫲
嫺
嬅
嬈
嬉
嬋
嬌
嬛
嬪
嬰
嬲
嬴
嬸
孌
子
孔
孕
孖
字
存
孚
孛
孜
孝
孟
孢
季
孤
孩
孫
孰
孵
孶
學
孺
孻
孽
孿
它
宅
宇
守
安
宋
完
宏
宕
宗
官
宙
定
宛
宜
客
宣
室
宥
宦
宮
宰
害
宴
宵
家
宸
容
宿
寂
寄
寅
密
寇
富
寐
寒
寓
寞
察
寡
寢
寥
實
寧
寨
審
寫
寬
寮
寰
寵
寶
寸
寺
封
射
將
專
尉
尊
尋
對
導
小
少
尖
尚
尢
尤
尬
就
尷
尹
尺
尻
尼
尾
尿
局
屁
居
屆
屈
屋
屌
屍
屎
屏
屐
屑
展
屙
屜
屠
屢
層
履
屬
屯
山
屹
岌
岑
岔
岩
岬
岱
岳
岷
岸
峇
峙
峠
峩
峭
峰
峴
島
峻
峽
崁
崇
崎
崑
崔
崗
崙
崛
崢
崧
崩
崴
嵌
嵐
嵩
嶇
嶸
嶺
嶼
嶽
巉
巍
巒
巔
川
州
巡
巢
工
左
巧
巨
巫
差
己
已
巳
巴
巷
巽
巾
巿
市
布
帆
希
帑
帕
帖
帚
帛
帝
帥
師
席
帳
帶
帷
常
帽
幀
幅
幌
幔
幕
幗
幟
幡
幢
幣
幪
幫
干
平
年
幷
幸
幹
幺
幻
幼
幽
幾
広
庇
床
序
底
店
庚
府
度
座
庫
庭
庵
庶
康
庸
庾
廁
廂
廈
廉
廊
廐
廓
廖
廚
廝
廟
廠
廢
廣
廬
廳
延
建
廿
弄
弊
弋
式
弒
弓
引
弗
弘
弛
弟
弦
弧
弩
弭
弱
張
強
弼
彆
彈
彊
彌
彎
彗
彙
形
彤
彥
彧
彩
彪
彬
彭
彰
影
彷
役
彼
彿
往
征
待
徇
很
徊
律
後
徐
徑
徒
得
徘
徙
從
御
復
循
微
徵
德
徹
徽
心
忄
必
忌
忍
忐
忑
忒
志
忘
忙
忟
忠
忡
忤
快
忱
念
忽
忿
怎
怏
怒
怕
怖
思
怠
怡
急
怦
性
怨
怪
怯
怱
恃
恆
恍
恐
恕
恙
恢
恣
恤
恥
恨
恩
恪
恫
恬
恭
息
恰
恿
悄
悅
悉
悌
悍
悔
悖
悚
悟
悠
患
您
悪
悲
悴
悵
悶
悸
悼
情
惆
惇
惋
惑
惕
惘
惚
惜
惟
惠
惡
惦
惰
惱
想
惶
惹
惺
惻
愁
愈
愉
意
愕
愚
愛
愜
感
愣
愧
愫
愷
慄
慈
態
慌
慎
慕
慘
慚
慟
慢
慣
慤
慧
慨
慫
慮
慰
慳
慵
慶
慷
慽
慾
憂
憊
憋
憎
憐
憑
憔
憚
憤
憧
憨
憩
憫
憬
憲
憶
憾
懂
懇
懈
應
懊
懋
懟
懦
懲
懵
懶
懷
懸
懺
懼
懾
懿
戀
戇
戈
戊
戌
戍
戎
成
我
戒
或
戚
戛
戟
戡
截
戮
戰
戲
戳
戴
戶
房
所
扁
扇
扈
扉
手
扌
才
扎
扒
打
扔
扖
托
扣
扭
扮
扯
扲
扳
扶
批
扼
找
承
技
抄
抆
把
抑
抒
抓
投
抖
抗
折
抨
披
抬
抱
抵
抹
抺
押
抽
抿
拂
拆
拇
拉
拋
拌
拍
拎
拐
拑
拒
拓
拔
拖
拗
拘
拙
拚
招
拜
括
拭
拮
拯
拱
拳
拷
拼
拾
拿
持
指
挈
按
挑
挖
挨
挪
挫
振
挺
挽
挾
捅
捉
捋
捍
捏
捐
捕
捧
捨
捩
捫
据
捱
捲
捷
捺
捽
掀
掂
掃
授
掉
掌
掏
掐
排
掘
掙
掛
掟
掠
採
探
掣
接
控
推
掩
措
掬
掰
掹
揀
揄
揆
揈
揉
揍
描
提
插
揖
揚
換
握
揣
揩
揪
揭
揮
援
揶
揸
揹
揼
損
搏
搐
搓
搔
搖
搗
搜
搞
搣
搥
搪
搬
搭
搵
搶
搽
搾
摃
摑
摒
摔
摘
摟
摧
摩
摯
摳
摷
摸
摹
摺
摻
撇
撈
撐
撒
撓
撕
撚
撞
撤
撥
撩
撫
撬
播
撮
撰
撲
撳
撻
撼
撾
撿
擁
擂
擅
擇
擊
擋
操
擎
擒
擔
擘
據
擠
擢
擦
擬
擰
擱
擲
擴
擷
擸
擺
擼
擾
攀
攏
攔
攘
攙
攜
攝
攞
攢
攣
攤
攬
支
攰
收
攸
改
攻
放
政
故
效
敍
敏
救
敕
敖
敗
教
敝
敞
敢
散
敦
敬
敲
整
敵
敷
數
斂
斃
文
斐
斑
斕
斗
料
斛
斜
斟
斡
斤
斥
斧
斬
斯
新
斷
方
於
施
旁
旅
旋
旌
族
旗
既
日
旦
旨
早
旬
旮
旱
旺
旻
旼
昀
昂
昆
昇
昊
昌
明
昏
易
昔
昕
星
映
春
昧
昨
昭
是
昱
昴
昶
時
晃
晉
晌
晏
晗
晚
晝
晞
晟
晤
晦
晨
普
景
晰
晴
晶
智
晾
暇
暈
暐
暑
暖
暗
暢
暨
暪
暫
暮
暱
暴
暹
曅
曆
曇
曉
曖
曙
曝
曠
曦
曬
曰
曱
曲
曳
更
曷
書
曹
曼
曾
替
最
會
月
有
朋
服
朔
朕
朗
望
朝
期
朧
木
未
末
本
札
朮
朱
朴
朵
朽
杆
杉
李
杏
材
村
杓
杖
杜
杞
束
杭
杯
杰
東
杵
杷
松
板
枇
枉
枋
析
枕
林
枚
果
枝
枯
架
枷
枸
柄
柊
柏
某
柑
柒
染
柔
柙
柚
柞
柢
查
柬
柯
柱
柳
柴
柵
柺
柿
栃
栓
栗
校
栩
株
核
根
格
栽
桀
桂
桃
桅
框
案
桌
桐
桑
桓
桔
桶
桿
梁
梅
梆
梓
梗
梘
條
梟
梢
梧
梨
梭
梯
械
梳
梵
梶
棄
棉
棋
棍
棒
棕
棗
棘
棚
棟
棠
棣
棧
森
棲
棵
棷
棺
椅
椋
植
椒
椰
椿
楂
楊
楓
楔
楚
楝
楠
楣
楨
業
極
楷
概
榆
榔
榕
榖
榚
榛
榜
榭
榮
榴
榷
榻
槃
構
槌
槍
槐
槓
槙
槤
槳
槽
槿
樁
樂
樊
樋
樑
樓
標
樞
樟
模
樣
樫
樵
樸
樹
樺
樽
橄
橋
橘
橙
機
橡
橢
橫
檀
檎
檔
檜
檢
檬
檯
檳
檸
檻
櫃
櫚
櫛
櫥
櫳
櫸
櫻
欄
權
欖
欠
次
欣
欲
欷
欸
欺
欽
款
歆
歇
歉
歌
歎
歐
歔
歡
止
正
此
步
武
歧
歪
歲
歷
歸
歹
死
歿
殃
殆
殉
殊
殖
殘
殞
殤
殭
殮
殯
殲
段
殷
殺
殼
殿
毀
毅
毆
毋
母
每
毒
比
毗
毛
毫
毯
氈
氏
氐
民
氓
気
氛
氟
氣
氦
氧
氨
氫
氮
氯
氰
水
氵
永
氹
氾
汀
汁
求
汆
汎
汐
汕
汗
汛
汝
汞
江
池
污
汪
汰
汴
汶
決
汽
汾
沁
沂
沃
沅
沈
沉
沌
沐
沒
沓
沖
沙
沛
沫
沬
沮
沱
河
沸
油
治
沼
沽
沾
沿
況
泉
泊
泌
泓
法
泗
泛
泠
泡
波
泣
泥
注
泫
泮
泯
泰
泱
泳
泵
洄
洋
洗
洙
洛
洞
津
洩
洪
洱
洲
洵
洶
洸
活
洽
派
流
浙
浚
浠
浦
浩
浪
浬
浮
浴
海
浸
浹
涂
涅
涇
消
涉
涎
涕
涮
涯
液
涵
涸
涼
淆
淇
淋
淌
淑
淒
淘
淚
淞
淡
淤
淥
淦
淨
淩
淪
淫
淮
深
淳
淵
混
淹
淺
添
清
渙
減
渝
渠
渡
渣
渥
渦
測
渭
港
渲
渴
游
渺
渾
湃
湄
湊
湍
湖
湘
湛
湧
湮
湯
湳
溏
源
準
溜
溝
溢
溥
溪
溫
溯
溱
溴
溶
溺
滂
滄
滅
滇
滋
滌
滑
滓
滔
滕
滘
滝
滬
滯
滲
滴
滷
滸
滾
滿
漁
漂
漆
漉
漏
漑
漓
演
漕
漠
漢
漣
漩
漪
漫
漬
漱
漲
漳
漸
漾
漿
潁
潑
潔
潘
潛
潢
潤
潦
潭
潮
潰
潺
潼
澀
澄
澆
澍
澎
澡
澤
澪
澱
澳
激
濁
濂
濃
濕
濘
濛
濟
濠
濡
濤
濫
濮
濰
濱
濺
濾
瀅
瀆
瀉
瀋
瀏
瀑
瀕
瀘
瀚
瀛
瀝
瀟
瀧
瀨
瀾
灌
灑
灘
灝
灣
灤
火
灬
灰
灶
灸
灼
災
炆
炊
炎
炑
炒
炙
炫
炬
炭
炮
炯
炳
炷
炸
為
烈
烊
烏
烘
烙
烚
烤
烯
烴
烷
烹
烽
焉
焊
焗
焙
焚
焜
無
焦
焰
焱
然
焾
煉
煌
煎
煒
煙
煜
煞
煤
煥
煦
照
煨
煩
煮
煱
煲
煸
煽
熄
熊
熒
熔
熙
熟
熠
熨
熬
熱
熹
熾
燁
燃
燈
燉
燊
燎
燒
燕
燘
燙
營
燥
燦
燧
燬
燭
燮
燴
燻
燼
爆
爍
爐
爛
爪
爬
爭
爵
父
爸
爹
爺
爻
爽
爾
牆
片
版
牌
牒
牙
牛
牜
牟
牠
牡
牢
牧
物
牯
牲
牴
特
牽
犀
犁
犢
犧
犬
犭
犯
狀
狂
狄
狎
狐
狒
狗
狙
狠
狡
狩
狸
狼
狽
猖
猙
猛
猜
猝
猥
猩
猴
猶
猷
猾
猿
獄
獅
獎
獒
獗
獠
獨
獰
獲
獵
獷
獸
獺
獻
獼
玄
率
玉
王
玥
玩
玫
玲
玷
玹
玻
珀
珂
珈
珊
珍
珏
珞
珠
珣
珩
班
珮
現
球
理
琇
琉
琊
琍
琛
琢
琤
琥
琦
琨
琪
琬
琮
琳
琴
琵
琶
琹
琺
瑄
瑇
瑋
瑕
瑚
瑛
瑜
瑞
瑟
瑣
瑤
瑩
瑪
瑯
瑰
瑾
璀
璃
璉
璋
璐
璘
璜
璞
璟
璣
璧
璨
環
璽
璿
瓊
瓏
瓔
瓚
瓜
瓢
瓣
瓦
瓶
瓷
甄
甌
甕
甘
甚
甜
生
產
甥
用
甩
甫
田
由
甲
申
甴
男
甸
町
界
畏
畑
畔
留
畜
畝
畠
畢
略
番
畫
異
當
畸
畿
疆
疇
疊
疏
疑
疒
疙
疚
疝
疣
疤
疫
疲
疵
疸
疼
疽
疾
痂
病
症
痊
痔
痕
痘
痙
痛
痞
痠
痢
痣
痤
痧
痰
痱
痴
痺
痾
痿
瘀
瘁
瘋
瘍
瘓
瘜
瘟
瘡
瘤
瘦
瘧
瘩
瘴
療
癆
癇
癌
癒
癖
癢
癥
癩
癬
癮
癱
癲
癸
登
發
白
百
皂
的
皆
皇
皎
皓
皖
皙
皮
皰
皺
皿
盂
盅
盆
盈
益
盎
盒
盔
盛
盜
盞
盟
盡
監
盤
盧
盬
目
盯
盲
直
相
盼
盾
省
眉
看
県
真
眠
眨
眩
眶
眷
眸
眺
眼
眾
睇
睎
睏
睛
睜
睞
睡
督
睥
睦
睫
睬
睹
睽
睾
睿
瞄
瞇
瞌
瞎
瞞
瞥
瞧
瞪
瞬
瞭
瞰
瞳
瞻
瞼
瞿
矇
矗
矚
矛
矜
矢
矣
知
矩
短
矮
矯
石
矽
砌
砍
研
砥
砧
砰
破
砵
砷
砸
硅
硏
硒
硝
硤
硫
硬
硯
硼
碇
碉
碌
碎
碑
碓
碗
碘
碟
碧
碩
碯
碰
碳
碴
確
碼
碾
磁
磅
磊
磋
磐
磚
磡
磨
磯
磵
磺
礁
礎
礙
礦
礪
礫
示
礻
社
祀
祁
祂
祈
祉
祖
祚
祛
祝
神
祟
祠
祥
票
祭
祺
祼
祿
禁
禍
禎
福
禤
禦
禧
禪
禮
禰
禱
禹
禺
禽
禾
禿
秀
私
秉
秋
科
秒
秘
租
秤
秦
秧
秩
移
稀
稅
稈
程
稍
稔
稚
稜
稟
稠
種
稱
稷
稻
稼
稽
稿
穀
穆
積
穎
穗
穢
穩
穫
穴
究
穹
空
穿
突
窄
窈
窒
窖
窗
窘
窩
窪
窮
窯
窺
窿
竄
竅
竇
竊
立
站
竟
章
竣
童
竭
端
競
竹
竺
竽
竿
笈
笏
笑
笙
笛
笠
符
笨
第
笹
筆
等
筍
筏
筑
筒
答
策
筠
筱
筲
筵
筷
箋
箍
箏
箔
箕
算
箘
管
箭
箱
箸
節
範
篆
篇
築
篋
篙
篡
篤
篩
篷
簇
簌
簡
簧
簪
簫
簷
簸
簽
簾
簿
籃
籌
籍
籟
籠
籤
籮
籲
米
籽
粉
粑
粒
粕
粗
粟
粢
粥
粦
粱
粲
粵
粹
粽
精
粿
糅
糊
糕
糖
糗
糙
糜
糞
糟
糠
糧
糬
糯
糰
糸
系
糾
紀
紂
約
紅
紉
紊
紋
納
紐
紓
純
紗
紘
紙
級
紛
紜
素
紡
索
紫
累
細
紳
紹
紺
絀
終
組
絆
結
絕
絛
絞
絡
絢
給
絨
絮
統
絲
絳
絹
綁
綏
綑
經
継
続
綜
綠
綢
綬
維
綱
網
綴
綵
綸
綺
綻
綽
綾
綿
緊
緋
緒
緘
線
緝
緞
締
緣
編
緩
緬
緯
緲
練
緹
緻
縄
縈
縉
縊
縛
縝
縣
縫
縮
縱
縷
總
績
繁
繃
繆
織
繕
繚
繞
繡
繩
繪
繫
繭
繳
繹
繼
繽
纂
續
纏
纓
纖
纜
缸
缺
缽
罄
罅
罉
罌
罐
罔
罕
罟
罩
罪
置
罰
署
罵
罷
罹
羅
羈
羊
羌
美
羔
羚
羞
群
羥
羨
義
羯
羲
羶
羸
羹
羽
翁
翅
翊
翌
翎
翏
習
翔
翕
翟
翠
翡
翩
翰
翹
翺
翻
翼
耀
老
考
者
耆
而
耍
耐
耕
耖
耗
耘
耙
耦
耳
耶
耷
耽
耿
聆
聊
聖
聘
聚
聞
聯
聰
聲
聳
聶
職
聽
聾
聿
肄
肅
肆
肇
肉
肋
肌
肓
肖
肘
肚
肛
肝
股
肢
肥
肩
肪
肯
肱
育
肺
肽
胃
背
胎
胖
胗
胚
胛
胞
胡
胤
胥
胭
胯
胰
胱
胳
胸
胺
能
脂
脅
脆
脈
脊
脖
脗
脛
脣
脩
脫
脯
脷
脾
腆
腋
腎
腐
腑
腓
腔
腕
腥
腦
腩
腫
腮
腰
腱
腳
腴
腸
腹
腺
腿
膀
膈
膊
膏
膚
膛
膜
膝
膠
膨
膩
膳
膶
膺
膽
膾
膿
臀
臂
臃
臆
臉
臊
臍
臘
臟
臣
臥
臧
臨
自
臭
至
致
臻
臼
舀
舂
舅
與
興
舉
舊
舌
舍
舐
舒
舔
舜
舞
舟
舢
舨
航
舫
般
舵
舷
船
舺
艇
艋
艏
艘
艙
艦
艮
良
艱
色
艸
艾
芋
芍
芎
芒
芙
芝
芡
芥
芪
芫
芬
芭
芮
芯
花
芳
芷
芸
芹
芻
芽
苑
苓
苔
苗
苛
苜
苞
苟
苣
若
苦
苫
苯
英
苷
茁
茂
范
茄
茅
茉
茗
茜
茨
茫
茯
茱
茲
茴
茵
茶
茸
茹
荀
荃
草
荊
荏
荒
荔
荷
荻
荼
荽
莉
莊
莎
莒
莓
莖
莘
莞
莢
莧
莫
莽
菁
菅
菇
菊
菌
菖
菜
菠
菩
華
菱
菲
萃
萄
萊
萌
萍
萎
萬
萱
萵
落
葆
葉
著
葛
葡
董
葦
葩
葫
葬
葱
葵
葷
葺
蒂
蒐
蒔
蒙
蒜
蒞
蒟
蒡
蒨
蒲
蒸
蒻
蒼
蒽
蒿
蓁
蓄
蓉
蓋
蓓
蓬
蓮
蓿
蔑
蔓
蔔
蔗
蔘
蔚
蔡
蔣
蔬
蔭
蔻
蔽
蕁
蕃
蕈
蕉
蕊
蕎
蕙
蕚
蕨
蕩
蕪
蕭
蕾
薄
薇
薈
薊
薏
薑
薔
薙
薛
薜
薦
薨
薩
薪
薯
薰
薺
藉
藍
藏
藐
藔
藕
藜
藝
藤
藥
藩
藪
藹
藺
藻
蘆
蘇
蘊
蘋
蘑
蘚
蘭
蘸
蘿
虎
虐
虔
處
虛
虜
虞
號
虧
虫
虹
蚊
蚌
蚓
蚣
蚤
蚧
蚩
蚪
蚯
蚵
蚶
蚺
蛀
蛆
蛇
蛋
蛙
蛛
蛟
蛤
蛭
蛹
蛺
蛻
蛾
蜀
蜂
蜃
蜆
蜇
蜈
蜊
蜒
蜓
蜘
蜜
蜢
蜥
蜴
蜷
蜻
蜿
蝌
蝕
蝗
蝙
蝟
蝠
蝦
蝨
蝮
蝴
蝶
蝸
蝽
螂
螃
螄
螈
融
螞
螢
螫
螳
螵
螺
蟀
蟄
蟆
蟈
蟋
蟎
蟑
蟒
蟠
蟬
蟲
蟶
蟹
蟻
蟾
蠅
蠍
蠑
蠔
蠕
蠟
蠢
蠣
蠩
蠱
蠶
蠻
血
衊
行
衍
術
街
衙
衛
衝
衡
衢
衣
衤
表
衩
衫
衰
衲
衷
衹
袁
袂
袋
袍
袒
袖
袞
被
袱
裁
裂
裔
裕
裘
裙
補
裝
裡
裨
裳
裴
裸
裹
製
褂
複
褐
褒
褓
褔
褚
褥
褪
褫
褲
褶
褸
褻
襄
襟
襠
襪
襬
襯
襲
西
要
覃
覆
見
規
覓
視
覦
親
覬
覲
覷
覺
覽
觀
角
解
觸
言
訂
訃
計
訊
訌
討
訐
訓
訕
訖
託
記
訛
訝
訟
訢
訣
訪
設
許
訴
診
註
詆
詎
詐
詔
評
詛
詞
詠
詡
詢
詣
試
詩
詫
詬
詭
詮
詰
話
該
詳
詹
詼
誅
誇
誌
認
誒
誓
誕
誘
語
誠
誡
誣
誤
誥
誦
誨
說
誰
課
誹
誼
調
談
諉
請
諏
諒
諕
論
諗
諜
諦
諧
諫
諭
諮
諱
諳
諶
諷
諸
諺
諾
謀
謁
謂
謄
謊
謎
謐
謔
謗
謙
謚
講
謝
謠
謨
謬
謹
謾
證
譏
識
譙
譚
譜
警
譯
議
譴
護
譽
讀
變
讍
讓
讖
讚
讞
谷
豁
豆
豈
豉
豊
豌
豎
豐
豔
豕
豚
象
豪
豫
豬
豸
豹
貂
貌
貎
貓
貘
貝
貞
負
財
貢
貧
貨
販
貪
貫
責
貯
貴
貶
買
貸
費
貼
貽
貿
賀
賁
賂
賃
賄
資
賈
賊
賑
賓
賜
賞
賠
賢
賣
賤
賦
質
賬
賭
賴
賺
購
賽
贅
贇
贈
贊
贍
贏
贓
贖
贛
赤
赦
赫
走
赴
起
趁
超
越
趕
趙
趟
趣
趨
足
趴
趺
趾
跆
跋
跌
跑
跛
距
跟
跡
跣
跤
跨
跩
跪
路
跳
踎
踏
踐
踝
踞
踢
踩
踫
踱
踴
踵
踹
踼
蹂
蹄
蹈
蹊
蹠
蹤
蹦
蹭
蹲
蹶
蹺
躁
躂
躇
躉
躊
躍
躪
身
躬
躲
躺
軀
車
軋
軌
軍
軒
軔
軚
軛
軟
転
軨
軫
軸
軼
軾
較
載
輋
輒
輓
輔
輕
輛
輜
輝
輟
輩
輪
輯
輸
輻
輾
輿
轄
轅
轆
轉
轍
轎
轟
辛
辜
辟
辣
辦
辨
辭
辮
辯
辰
辱
農
辶
迂
迄
迅
迊
迎
近
返
迢
迥
迦
迪
迫
迭
述
迴
迷
迸
迺
追
退
送
逃
逄
逅
逆
逍
透
逐
途
逕
這
通
逛
逝
逞
速
造
逢
連
逮
進
逵
逸
逼
逾
遁
遂
遇
遊
運
遍
過
遏
遐
遑
道
達
違
遙
遛
遜
遞
遠
遣
適
遭
遮
遲
遴
遵
遷
選
遺
遼
遽
避
邀
邁
邂
邃
還
邇
邊
邏
邑
邢
那
邦
邪
邯
邱
邵
邸
郁
郊
郎
郝
郡
部
郭
郵
都
鄂
鄉
鄒
鄙
鄧
鄭
鄰
鄲
鄴
鄺
酉
酋
酌
配
酎
酒
酗
酚
酣
酥
酪
酬
酮
酯
酵
酶
酷
酸
醂
醃
醇
醉
醋
醍
醐
醒
醚
醛
醜
醞
醣
醫
醬
醮
醯
醺
釀
釁
釆
采
釉
釋
里
重
野
量
釐
金
釗
釘
釜
針
釣
釧
鈈
鈉
鈍
鈎
鈔
鈕
鈞
鈣
鈦
鈴
鈷
鈹
鈺
鈾
鈿
鉀
鉅
鉉
鉑
鉗
鉛
鉬
鉸
鉻
銀
銃
銅
銓
銖
銘
銚
銜
銨
銫
銬
銳
銷
銻
銼
鋁
鋅
鋌
鋒
鋤
鋪
鋰
鋸
鋼
錄
錐
錕
錚
錠
錡
錢
錦
錨
錫
錮
錯
錳
錶
鍊
鍋
鍍
鍔
鍚
鍛
鍥
鍬
鍵
鎂
鎊
鎖
鎗
鎘
鎚
鎢
鎧
鎬
鎮
鎰
鎳
鏈
鏍
鏗
鏘
鏞
鏡
鏢
鏤
鏵
鏹
鏽
鐘
鐧
鐮
鐲
鐳
鐵
鐸
鐺
鑄
鑊
鑌
鑑
鑫
鑰
鑲
鑼
鑽
鑾
鑿
長
門
閃
閉
開
閏
閒
間
閔
閘
閡
閣
閥
閨
閩
閭
閱
閹
閻
闆
闊
闌
闍
闕
闖
關
闡
闢
阝
阡
阪
阮
阱
防
阻
阿
陀
陂
附
陋
陌
降
限
陛
陝
陡
院
陣
除
陪
陰
陲
陳
陵
陶
陷
陸
陽
隅
隆
隊
隋
隍
階
隔
隕
隘
隙
際
障
隧
隨
險
隮
隱
隴
隸
隻
隼
雀
雁
雄
雅
集
雉
雋
雌
雕
雖
雙
雛
雜
雞
離
難
雨
雪
雯
雲
零
雷
雹
電
需
霄
霆
震
霍
霎
霏
霑
霓
霖
霜
霞
霧
霰
露
霸
霹
霽
霾
靂
靄
靈
青
靖
靚
靛
靜
非
靠
靡
面
靦
革
靳
靴
靶
靼
鞋
鞍
鞏
鞘
鞠
鞦
鞭
韁
韃
韆
韋
韌
韓
韜
韭
音
韶
韻
響
頁
頂
頃
項
順
須
頌
預
頑
頒
頓
頗
領
頜
頡
頤
頭
頰
頷
頸
頹
頻
顆
題
額
顎
顏
願
顛
類
顧
顫
顯
顱
顳
顴
風
颯
颱
颶
飄
飇
飛
食
飩
飪
飯
飲
飴
飼
飽
飾
餃
餅
餈
餉
養
餌
餐
餒
餓
餘
餚
餞
餡
館
餬
餵
餸
餾
餿
饀
饅
饉
饋
饌
饑
饒
饗
饞
首
香
馥
馨
馬
馭
馮
馳
馴
駁
駄
駐
駒
駕
駙
駛
駝
駭
駱
駿
騁
騎
騏
騙
騫
騮
騰
騷
騾
驃
驄
驅
驊
驍
驒
驕
驗
驚
驛
驟
驢
驤
驥
驪
骨
骯
骰
骷
骸
骹
骼
髀
髏
髒
髓
體
髖
高
髦
髮
髹
髻
鬃
鬆
鬈
鬍
鬚
鬢
鬥
鬧
鬱
鬼
魁
魂
魄
魅
魍
魎
魏
魔
魘
魚
魨
魮
魯
魴
魷
鮋
鮑
鮟
鮠
鮨
鮪
鮫
鮭
鮮
鯇
鯉
鯊
鯖
鯙
鯛
鯡
鯤
鯥
鯧
鯨
鯪
鯭
鯰
鯷
鯹
鯽
鰂
鰈
鰓
鰤
鰧
鰨
鰭
鰲
鰹
鰺
鰻
鰽
鰾
鱂
鱆
鱇
鱈
鱉
鱒
鱔
鱗
鱘
鱲
鱷
鱸
鳥
鳩
鳳
鳴
鳶
鴉
鴕
鴛
鴦
鴨
鴻
鴿
鵑
鵜
鵝
鵠
鵡
鵪
鵬
鵲
鶉
鶩
鶯
鶴
鷗
鷲
鷸
鷹
鷺
鸚
鸛
鸞
鹵
鹹
鹼
鹽
鹿
麂
麈
麋
麒
麓
麗
麝
麟
麥
麩
麴
麵
麻
麼
麾
麿
黃
黍
黎
黏
黑
黔
默
黛
黜
黝
點
黨
黯
黴
鼎
鼓
鼕
鼠
鼬
鼻
鼾
齁
齊
齋
齒
齡
齣
龍
龐
龔
龕
龜
꒦
🌈
🌊
🌑
🌕
🌗
🌚
🌝
🌞
🌱
🌶
🌸
🌹
🌺
🌻
🌼
🌽
🌿
🍀
🍃
🍄
🍅
🍆
🍇
🍉
🍊
🍋
🍌
🍍
🍎
🍑
🍓
🍔
🍕
🍖
🍗
🍙
🍚
🍛
🍜
🍝
🍞
🍟
🍠
🍡
🍢
🍣
🍤
🍦
🍧
🍨
🍪
🍫
🍮
🍯
🍰
🍱
🍲
🍳
🍴
🍵
🍶
🍷
🍸
🍹
🍺
🍻
🍼
🍽
🎁
🎂
🎃
🎄
🎆
🎈
🎉
🎊
🎏
🎤
🎵
🎶
🏃
🏆
🏠
🏮
🏻
🏽
🏾
🏿
🐂
🐄
🐈
🐑
🐓
🐔
🐖
🐙
🐚
🐟
🐠
🐢
🐣
🐤
🐥
🐦
🐮
🐯
🐰
🐱
🐶
🐷
🐸
🐻
🐽
🐾
👀
👁
👄
👅
👆
👇
👈
👉
👊
👋
👌
👍
👎
👏
👐
👑
👦
👧
👨
👩
👫
👬
👭
👮
👯
👱
👴
👵
👶
👸
👻
👼
👿
💀
💁
💃
💄
💋
💎
💑
💡
💢
💤
💥
💦
💧
💨
💩
💪
💫
💭
💯
💰
💸
📌
📍
📝
📢
📣
📷
📸
🔅
🔍
🔎
🔥
🔪
🔴
🔸
🔹
🔺
🔻
🔼
🖐
🖕
🗣
😀
😁
😂
😃
😄
😅
😆
😇
😈
😉
😊
😋
😌
😍
😎
😏
😐
😑
😒
😓
😔
😕
😖
😗
😘
😙
😚
😛
😜
😝
😞
😟
😠
😡
😢
😣
😤
😥
😦
😧
😨
😩
😪
😫
😬
😭
😮
😯
😰
😱
😲
😳
😴
😵
😶
😷
😸
😹
😺
😻
😼
😽
😿
🙀
🙁
🙂
🙃
🙄
🙅
🙆
🙇
🙈
🙉
🙊
🙋
🙌
🙍
🙎
🙏
🚩
🚶
🤐
🤑
🤓
🤔
🤗
🤘
🤙
🤝
🤟
🤡
🤢
🤣
🤤
🤦
🤧
🤨
🤩
🤪
🤫
🤬
🤭
🤮
🤯
🤷
🥂
🥐
🥑
🥒
🥔
🥗
🥘
🥚
🥛
🥞
🥟
🥢
🥣
🥤
🥥
🥦
🥩
🥬
🥰
🥳
🥴
🥺
🦀
🦁
🦄
🦐
🦑
🦔
🦞
🧀
🧐
🧚
the
of
and
in
to
was
he
is
as
for
on
with
that
it
his
by
at
from
her
she
you
had
an
were
but
be
this
are
not
my
they
one
which
or
have
him
me
first
all
also
their
has
up
who
out
been
when
after
there
into
new
two
its
time
would
no
what
about
said
we
over
then
other
so
more
can
if
like
back
them
only
some
could
where
just
during
before
do
made
school
through
than
now
years
most
world
may
between
down
well
three
year
while
will
later
city
under
around
did
such
being
used
state
people
part
know
against
your
many
second
university
both
national
these
don
known
off
way
until
re
how
even
get
head
didn
team
american
because
de
born
united
film
since
still
long
work
south
us
became
any
high
again
day
family
see
right
man
eyes
house
season
war
states
including
took
life
north
same
each
called
name
much
place
however
go
four
group
another
found
won
area
here
going
away
series
left
home
music
best
make
hand
number
company
several
never
last
john
very
album
take
end
good
too
following
released
game
played
little
began
district
old
want
those
side
held
own
early
county
ll
league
use
west
face
think
government
march
came
small
general
town
june
line
based
something
september
thought
looked
along
international
air
july
club
went
january
october
our
august
april
york
few
east
show
member
college
father
public
come
men
five
set
station
church
next
former
november
room
party
located
december
age
got
system
let
love
though
every
look
song
water
century
without
body
black
night
within
great
women
single
ve
building
large
population
river
named
band
white
started
once
should
service
top
built
british
open
death
king
moved
local
times
children
february
book
why
door
need
president
order
final
road
wasn
although
due
major
died
village
third
knew
asked
turned
st
wanted
say
together
received
main
son
served
different
behind
himself
felt
members
power
football
law
voice
play
near
park
history
having
saw
mother
army
point
front
help
english
street
art
late
hands
games
award
young
put
published
country
division
across
told
often
ever
french
london
center
six
red
led
days
include
light
find
tell
among
species
really
according
central
half
form
original
gave
office
making
enough
lost
full
opened
must
included
live
given
german
player
run
business
woman
community
cup
might
million
land
court
development
short
round
ii
km
seen
class
story
always
become
sure
research
almost
director
council
la
career
things
using
island
couldn
car
close
force
better
free
support
control
field
students
education
married
nothing
worked
others
record
big
inside
level
anything
continued
give
james
military
established
non
returned
feel
does
title
written
thing
feet
william
far
co
association
hard
already
championship
human
western
department
hall
role
various
production
heart
living
fire
version
television
royal
produced
working
act
case
society
region
present
radio
period
looking
least
total
keep
england
wife
program
per
brother
mind
special
am
works
soon
political
george
services
taken
created
further
able
reached
david
union
joined
upon
done
important
social
information
either
appeared
position
ground
lead
rock
dark
election
board
france
hair
course
arms
site
police
girl
instead
real
sound
words
moment
someone
summer
project
announced
san
less
wrote
past
followed
blue
founded
al
finally
india
taking
records
america
design
considered
northern
god
stop
battle
toward
european
outside
described
track
today
playing
language
call
heard
professional
low
australia
miles
california
win
yet
green
trying
blood
southern
science
maybe
everything
match
square
mouth
video
race
recorded
leave
above
daughter
points
space
museum
change
middle
common
move
tv
post
lake
seven
tried
elected
closed
ten
paul
minister
months
start
chief
return
canada
person
sea
release
similar
modern
brought
rest
hit
formed
mr
floor
event
doing
thomas
robert
care
killed
training
star
week
needed
turn
finished
railway
rather
news
health
sent
example
ran
term
michael
coming
yes
forces
despite
gold
areas
stage
fact
dead
says
popular
germany
probably
developed
result
pulled
friend
stood
money
running
mi
signed
word
songs
child
met
tour
average
teams
minutes
festival
current
deep
kind
decided
eastern
seemed
episode
bed
added
table
indian
private
charles
route
available
idea
throughout
centre
addition
appoint
style
books
eight
construction
press
mean
wall
friends
remained
schools
study
institute
oh
chinese
sometimes
events
possible
australian
type
brown
forward
talk
process
food
debut
seat
performance
committee
features
character
arts
herself
else
lot
strong
russian
range
hours
peter
arm
morning
dr
sold
directed
guitar
china
list
performed
media
uk
players
smile
myself
placed
coach
province
towards
wouldn
leading
whole
boy
official
designed
grand
census
europe
attack
japanese
henry
cross
getting
alone
action
lower
network
wide
washington
japan
hospital
believe
changed
sister
hold
gone
sir
hadn
ship
studies
academy
shot
rights
below
base
bad
involved
kept
largest
bank
future
especially
beginning
mark
movement
section
female
magazine
plan
professor
lord
longer
sat
walked
hill
civil
energy
model
families
size
thus
aircraft
completed
includes
data
captain
fight
vocals
featured
richard
bridge
fourth
officer
stone
hear
means
medical
groups
management
self
lips
competition
entire
lived
technology
leaving
federal
tournament
bit
passed
hot
independent
awards
kingdom
mary
spent
fine
doesn
reported
jack
fall
raised
itself
stay
true
studio
sports
replaced
paris
systems
saint
leader
theatre
whose
market
capital
parents
spanish
canadian
earth
cut
degree
writing
bay
christian
awarded
natural
higher
bill
coast
provided
previous
senior
ft
valley
organization
stopped
onto
countries
parts
conference
queen
security
interest
saying
allowed
master
earlier
phone
matter
smith
winning
try
happened
moving
campaign
los
breath
mid
certain
girls
date
italian
african
standing
fell
artist
shows
deal
mine
industry
everyone
republic
provide
collection
library
student
primary
owned
older
via
heavy
makes
attention
anyone
africa
stated
length
ended
fingers
command
staff
skin
foreign
opening
governor
okay
medal
kill
sun
cover
job
introduced
chest
hell
feeling
success
meet
reason
standard
meeting
novel
trade
source
buildings
rose
guy
goal
chapter
native
husband
unit
limited
entered
weeks
producer
operations
mountain
takes
covered
forced
related
roman
complete
successful
key
texas
cold
channel
traditional
films
dance
clear
nine
van
prince
question
active
tracks
ireland
regional
silver
author
personal
sense
operation
economic
holding
twenty
isbn
additional
speed
hour
edition
regular
historic
places
whom
shook
movie
secretary
prior
report
chicago
read
foundation
view
engine
scored
units
ask
airport
property
ready
lady
month
listed
contract
manager
themselves
lines
navy
writer
meant
runs
practice
championships
singer
glass
commission
required
forest
starting
culture
giving
access
attended
test
couple
stand
catholic
martin
caught
executive
eye
thinking
chair
quite
shoulder
hope
decision
plays
defeated
municipality
whether
structure
offered
pain
ice
direction
paper
mission
noted
individual
managed
nature
lives
plant
helped
except
studied
computer
figure
relationship
issue
significant
loss
die
smiled
gun
ago
highest
male
bring
goals
mexico
problem
distance
commercial
location
annual
famous
drive
neck
surface
caused
italy
understand
greek
highway
wrong
hotel
comes
appearance
joseph
double
issues
musical
companies
castle
income
review
assembly
bass
parliament
artists
experience
particular
walk
foot
engineering
talking
window
dropped
miss
baby
boys
break
stars
edge
remember
policy
carried
train
stadium
bar
sex
angeles
evidence
becoming
assistant
soviet
upper
step
wing
youth
financial
reach
actor
numerous
nodded
arrived
minute
believed
sorry
complex
beautiful
victory
associated
temple
chance
perhaps
metal
bishop
lee
launched
tree
le
retired
subject
prize
contains
yeah
theory
empire
waiting
trust
recording
happy
terms
camp
champion
religious
pass
zealand
names
port
ancient
tom
corner
represented
watch
legal
anti
justice
cause
watched
brothers
material
changes
simply
response
louis
fast
answer
historical
stories
straight
create
feature
increased
rate
administration
virginia
el
activities
cultural
overall
winner
programs
basketball
legs
guard
beyond
cast
doctor
mm
flight
results
remains
cost
effect
winter
larger
islands
problems
chairman
grew
commander
isn
pay
failed
selected
hurt
fort
box
regiment
majority
journal
edward
plans
shown
pretty
irish
characters
scene
operated
allow
spring
junior
matches
looks
mike
houses
fellow
beach
marriage
rules
oil
florida
expected
nearby
congress
sam
peace
recent
iii
wait
cell
variety
serving
please
poor
joe
pacific
attempt
wood
democratic
piece
prime
rural
mile
touch
appears
township
soldiers
pennsylvania
closer
fighting
claimed
score
jones
physical
editor
filled
genus
specific
sitting
super
mom
therefore
supported
status
fear
cases
store
meaning
wales
minor
spain
tower
focus
vice
frank
follow
parish
separate
golden
horse
fifth
remaining
branch
presented
stared
uses
secret
forms
baseball
choice
note
discovered
travel
composed
truth
russia
ball
color
kiss
dad
wind
continue
ring
referred
numbers
digital
greater
metres
direct
increase
responsible
crew
rule
trees
troops
broke
goes
individuals
hundred
weight
creek
sleep
memory
defense
provides
ordered
code
value
jewish
windows
safe
judge
whatever
corps
realized
growing
pre
cities
alexander
gaze
lies
spread
scott
letter
showed
situation
mayor
transport
watching
workers
extended
expression
normal
chart
multiple
border
host
mrs
walls
piano
heat
cannot
earned
products
drama
era
authority
seasons
join
grade
sign
difficult
machine
territory
stations
squadron
stepped
iron
serve
appear
sky
speak
broken
charge
knowledge
kilometres
removed
ships
article
campus
simple
pushed
britain
leaves
cd
soft
boston
latter
easy
acquired
poland
quality
officers
presence
planned
nations
mass
broadcast
jean
share
image
influence
wild
offer
emperor
electric
reading
headed
ability
promoted
yellow
ministry
throat
smaller
politician
latin
spoke
cars
williams
males
lack
pop
acting
seeing
consists
estate
pressure
johnson
newspaper
jr
chris
olympics
online
conditions
beat
elements
walking
vote
needs
carolina
text
featuring
global
block
shirt
levels
francisco
purpose
females
et
dutch
duke
ahead
gas
twice
safety
serious
turning
lieutenant
firm
maria
amount
mixed
daniel
proposed
perfect
affairs
seconds
contemporary
paid
prison
save
kitchen
label
administrative
intended
constructed
academic
nice
teacher
races
corporation
ben
nation
issued
shut
drums
housing
victoria
seems
opera
graduated
function
von
mentioned
picked
build
recognized
protection
picture
notable
exchange
elections
loved
percent
racing
fish
elizabeth
garden
volume
hockey
beside
settled
competed
replied
drew
actress
marine
scotland
steel
glanced
farm
steve
risk
tonight
positive
magic
singles
effects
gray
screen
dog
residents
bus
sides
none
secondary
literature
polish
destroyed
flying
founder
households
lay
reserve
usa
gallery
industrial
younger
approach
appearances
urban
ones
finish
avenue
powerful
fully
growth
page
honor
jersey
projects
advanced
revealed
basic
infantry
pair
equipment
visit
evening
search
grant
effort
solo
treatment
buried
republican
primarily
bottom
owner
israel
gives
jim
dream
bob
remain
spot
notes
produce
champions
contact
ed
soul
accepted
ways
del
losing
split
price
capacity
basis
trial
questions
guess
memorial
naval
initial
whispered
median
engineer
sydney
columbia
strength
tears
senate
card
asian
agent
software
draw
warm
supposed
com
pro
transferred
leaned
candidate
escape
mountains
asia
potential
activity
entertainment
seem
traffic
jackson
murder
slow
product
orchestra
haven
agency
bbc
taught
website
comedy
unable
storm
planning
albums
rugby
environment
scientific
grabbed
protect
boat
damage
principal
divided
dedicated
mount
ohio
pick
fought
empty
shoulders
sort
thank
berlin
prominent
account
freedom
necessary
efforts
alex
headquarters
follows
alongside
des
simon
andrew
suggested
operating
learning
steps
sweet
technical
begin
easily
teeth
speaking
settlement
scale
renamed
ray
max
enemy
semi
joint
compared
scottish
leadership
analysis
offers
georgia
pieces
captured
animal
deputy
guest
organized
tony
combine
challenge
huge
wants
battalion
sons
rise
crime
types
facilities
telling
path
platform
sit
tells
assigned
rich
pull
alive
letters
concept
conducted
wearing
happen
bought
becomes
holy
gets
ocean
defeat
languages
purchased
coffee
occurred
titled
declared
applied
sciences
concert
sounds
jazz
brain
painting
fleet
tax
nick
michigan
count
animals
leaders
episodes
content
birth
clubs
palace
critical
refused
fair
leg
laughed
returning
surrounding
participated
formation
lifted
pointed
connected
rome
medicine
laid
taylor
santa
powers
adam
tall
shared
focused
knowing
yards
entrance
falls
calling
sources
chosen
beneath
resources
yard
nominated
silence
zone
defined
gained
thirty
bodies
moon
adopted
christmas
register
apart
iran
premier
serves
du
unknown
parties
generation
continues
quick
fields
brigade
quiet
teaching
clothes
impact
weapons
partner
flat
theater
supreme
relations
plants
suffered
wilson
kids
begins
seats
armed
internet
models
worth
laws
communities
classes
background
knows
thanks
quarter
reaching
humans
carry
killing
format
kong
hong
setting
architecture
disease
railroad
inc
possibly
wish
arthur
harry
density
crowd
illinois
stomach
tone
unique
reports
anyway
liberal
der
vehicle
thick
dry
drug
faced
facility
theme
holds
creation
strange
colonel
revolution
bell
politics
turns
silent
rail
relief
independence
combat
shape
write
determined
sales
learned
finger
oxford
providing
heritage
fiction
situated
designated
allowing
distribution
hosted
sight
interview
estimated
reduced
toronto
footballer
keeping
guys
damn
claim
motion
sport
sixth
stayed
en
rear
receive
handed
twelve
dress
audience
granted
brazil
spirit
noticed
etc
olympic
representative
eric
tight
trouble
reviews
drink
vampire
missing
roles
ranked
household
finals
wave
critics
phase
massachusetts
pilot
unlike
philadelphia
bright
guns
crown
organizations
roof
tongue
marked
circle
fox
korea
bronze
brian
expanded
sexual
supply
yourself
inspired
labour
fc
reference
vision
draft
connection
brand
reasons
classic
driving
trip
jesus
cells
entry
neither
trail
claims
atlantic
orders
labor
nose
afraid
identified
intelligence
calls
cancer
attacked
passing
stephen
positions
imperial
grey
jason
sunday
swedish
avoid
extra
uncle
message
covers
allows
surprise
materials
fame
hunter
citizens
figures
davis
environmental
confirmed
shit
titles
di
performing
difference
acts
attacks
existing
votes
opportunity
nor
shop
trains
opposite
pakistan
develop
resulted
representatives
actions
reality
pressed
wine
conversation
faculty
northwest
ends
documentary
nuclear
stock
grace
sets
eat
alternative
bag
resulting
creating
surprised
cemetery
drop
finding
sarah
cricket
streets
tradition
ride
exhibition
target
ear
explain
rain
composer
injury
apartment
municipal
occupied
netherlands
clean
billion
constitution
learn
maximum
classical
francis
lose
opposition
jose
ontario
bear
core
hills
rolled
ending
drawn
permanent
fun
lewis
sites
chamber
ryan
scoring
height
lyrics
staring
officials
snow
oldest
orange
qualified
interior
succeeded
thousand
dinner
lights
existence
fans
heavily
greatest
conservative
send
bowl
plus
enter
catch
economy
duty
speech
authorities
princess
performances
versions
shall
graduate
pictures
effective
remembered
poetry
desk
crossed
starring
starts
passenger
sharp
acres
ass
weather
falling
rank
fund
supporting
check
adult
publishing
heads
cm
southeast
lane
application
bc
les
condition
transfer
prevent
display
ex
regions
earl
federation
cool
besides
obtain
portion
mix
reaction
liked
dean
express
peak
counter
religion
chain
rare
miller
convention
aid
lie
vehicles
mobile
perform
squad
wonder
lying
crazy
sword
attempted
centuries
weren
philosophy
category
anna
interested
sweden
wolf
abandon
kg
literary
alliance
task
entitled
threw
promotion
factory
tiny
soccer
visited
matt
fm
achieve
defence
internal
persian
method
arrest
otherwise
cambridge
programming
villages
elementary
districts
rooms
criminal
conflict
worry
trained
attempts
waited
signal
bird
truck
subsequent
programme
ad
communist
details
faith
sector
patrick
carrying
laugh
controlled
korean
showing
origin
fuel
evil
brief
identity
address
pool
missed
publication
web
planet
ian
anne
wings
invited
standards
kissed
ideas
climate
causing
walter
worse
albert
articles
winners
desire
aged
northeast
dangerous
gate
doubt
wooden
multi
poet
rising
funding
communications
communication
violence
copies
prepared
ford
investigation
skills
pulling
electronic
containing
offices
singing
understanding
restaurant
tomorrow
fashion
christ
ward
da
pope
stands
flow
studios
aired
commissioned
contained
exist
fresh
americans
wrestling
approved
kid
employed
respect
suit
angel
asking
increasing
frame
angry
selling
thin
finds
temperature
statement
ali
inhabitants
towns
extensive
narrow
jane
flowers
images
promise
somewhere
object
fly
bureau
cape
presidential
legislative
launch
founding
artillery
strike
un
institutions
roll
writers
landing
chose
kevin
anymore
pp
attorney
fit
dan
billboard
receiving
agricultural
breaking
sought
dave
admitted
lands
mexican
charlie
hole
iv
howard
credit
moscow
roads
accident
proved
wear
struck
hey
guards
stuff
slid
expansion
cat
anthony
melbourne
opposed
sub
southwest
architect
failure
plane
map
camera
tank
listen
regarding
wet
introduction
metropolitan
link
ep
fighter
inch
grown
gene
anger
fixed
buy
dvd
khan
domestic
worldwide
chapel
mill
functions
examples
developing
turkey
hits
pocket
antonio
papers
grow
unless
circuit
concerned
attached
journalist
selection
journey
converted
provincial
painted
hearing
aren
bands
negative
aside
wondered
knight
lap
survey
ma
noise
billy
shooting
guide
bedroom
priest
resistance
motor
homes
sounded
giant
scenes
equal
comic
patients
hidden
solid
actual
bringing
afternoon
touched
funds
wedding
consisted
marie
canal
sr
kim
treaty
turkish
recognition
residence
cathedral
broad
knees
incident
shaped
fired
norwegian
handle
cheek
contest
represent
representing
beauty
birds
advantage
emergency
wrapped
drawing
notice
pink
broadcasting
somehow
bachelor
seventh
collected
registered
establishment
alan
assumed
chemical
personnel
roger
retirement
jeff
portuguese
wore
tied
device
threat
progress
advance
banks
hired
manchester
nfl
teachers
structures
forever
tennis
helping
saturday
sale
applications
junction
hip
incorporated
neighborhood
dressed
ceremony
influenced
hers
visual
stairs
decades
inner
kansas
hung
hoped
gain
scheduled
downtown
engaged
austria
clock
norway
pale
protected
victor
employees
plate
putting
surrounded
finishing
blues
tropical
minnesota
consider
philippines
accept
retrieved
concern
anderson
properties
institution
gordon
vietnam
backing
outstanding
muslim
crossing
folk
producing
usual
demand
occurs
observed
lawyer
educated
kelly
string
pleasure
budget
items
colorado
philip
typical
derived
survived
asks
mental
jake
jews
distinguished
ltd
sri
athletic
loud
thousands
worried
shadow
transportation
horses
weapon
arena
importance
users
tim
objects
contributed
dragon
douglas
aware
senator
johnny
jordan
sisters
engines
flag
investment
samuel
shock
capable
clark
row
wheel
refers
session
familiar
biggest
wins
hate
maintained
drove
hamilton
request
expressed
injured
underground
churches
walker
wars
tunnel
passes
stupid
agriculture
cabinet
regarded
joining
indiana
push
dates
spend
behavior
woods
protein
gently
chase
morgan
mention
burning
wake
combination
occur
mirror
leads
jimmy
indeed
impossible
singapore
paintings
covering
soldier
locations
attendance
sell
historian
wisconsin
invasion
argued
painter
diego
changing
egypt
inches
missouri
vol
grounds
spoken
switzerland
reform
rolling
ha
forget
massive
resigned
burned
allen
tennessee
locked
values
improved
wounded
universe
sick
dating
facing
pack
purchase
user
moments
merged
anniversary
coal
brick
understood
causes
dynasty
queensland
establish
stores
crisis
promote
hoping
views
cards
referee
extension
raise
arizona
improve
colonial
formal
charged
palm
lucky
hide
rescue
faces
feelings
candidates
juan
goods
courses
weekend
luke
cash
fallen
delivered
affected
installed
tries
swiss
hollywood
costs
lincoln
responsibility
shore
file
proper
maryland
assistance
jump
constant
offering
waters
persons
realize
contain
trophy
partnership
factor
musicians
cry
bound
oregon
indicated
hero
houston
medium
consisting
somewhat
cycle
beer
moore
frederick
gotten
eleven
worst
weak
arrange
chin
loan
universal
bond
fifteen
pattern
disappear
translate
lip
arab
capture
interests
insurance
shifted
cave
prix
warning
sections
courts
coat
plot
smell
feed
golf
favorite
maintain
knife
vs
voted
degrees
finance
quebec
opinion
translation
manner
ruled
operate
productions
choose
musician
discovery
confused
tired
separated
stream
techniques
committed
attend
ranking
kings
throw
passengers
measure
horror
fan
mining
sand
danger
salt
calm
decade
dam
require
runner
rush
associate
greece
rivers
consecutive
matthew
sighed
sq
documents
steam
edited
closing
tie
accused
islamic
distributed
directors
organisation
bruce
breathing
mad
lit
arrival
concrete
taste
composition
shaking
faster
amateur
adjacent
stating
twin
flew
tokyo
publications
ridge
storage
carl
pages
concluded
desert
driven
universities
ages
terminal
sequence
borough
constituency
creative
cousin
economics
dreams
margaret
notably
reduce
montreal
mode
ears
saved
jan
vocal
andy
riding
threatened
meters
meanwhile
landed
compete
repeated
grass
czech
charges
tea
sudden
appeal
solution
describes
pierre
classification
glad
parking
belt
physics
rachel
add
hungarian
participate
expedition
damaged
gift
childhood
fifty
mathematics
jumped
letting
defensive
mph
testing
hundreds
shoot
owners
matters
smoke
israeli
kentucky
dancing
mounted
grandfather
emma
designs
profit
argentina
truly
li
lawrence
cole
begun
detroit
willing
branches
smiling
decide
miami
enjoyed
recordings
poverty
ethnic
gay
gary
arabic
accompanied
fishing
determine
residential
acid
alice
returns
starred
mail
jonathan
strategy
net
forty
cook
businesses
equivalent
commonwealth
distinct
ill
shift
harris
replace
rio
imagine
formula
ensure
scheme
conservation
purposes
feels
favor
contrast
hanging
hunt
movies
instruments
victims
danish
christopher
busy
demon
sugar
earliest
colony
studying
balance
duties
belgium
slipped
carter
visible
stages
iraq
fifa
commune
forming
zero
continuing
talked
counties
legend
bathroom
option
tail
clay
daughters
afterwards
severe
jaw
visitors
devices
aviation
russell
kate
entering
subjects
temporary
swimming
forth
smooth
ghost
audio
bush
operates
rocks
movements
signs
eddie
ann
voices
honorary
memories
dallas
pure
measures
racial
promised
harvard
ceo
parliamentary
indicate
benefit
flesh
dublin
louisiana
patient
sleeping
membership
coastal
medieval
wanting
element
scholars
rice
limit
survive
makeup
rating
collaboration
obvious
boss
ms
baron
birthday
linked
soil
diocese
ncaa
offensive
shell
shouldn
waist
plain
ross
organ
resolution
manufacturing
adding
relative
kennedy
whilst
moth
marketing
gardens
crash
heading
partners
credited
carlos
moves
cable
marshall
depending
bottle
represents
rejected
responded
existed
jobs
denmark
lock
treated
graham
routes
talent
commissioner
drugs
secure
tests
reign
restored
photography
contributions
oklahoma
designer
disc
grin
seattle
robin
paused
atlanta
unusual
praised
las
laughing
satellite
hungary
visiting
interesting
factors
deck
poems
norman
stuck
speaker
rifle
domain
premiered
dc
comics
actors
reputation
eliminated
ceiling
prisoners
script
leather
austin
mississippi
admiral
parallel
charlotte
guilty
tools
gender
divisions
fruit
laboratory
nelson
fantasy
marry
rapid
aunt
tribe
requirements
aspects
suicide
amongst
adams
bone
ukraine
abc
kick
sees
edinburgh
clothing
column
rough
gods
hunting
broadway
gathered
concerns
spending
ty
snapped
requires
solar
bones
cavalry
iowa
drinking
waste
index
franklin
charity
thompson
stewart
tip
flash
landscape
friday
enjoy
singh
poem
listening
eighth
fred
differences
adapted
bomb
ukrainian
surgery
corporate
masters
anywhere
waves
odd
sean
portugal
orleans
dick
debate
kent
eating
puerto
cleared
expect
cinema
guitarist
blocks
electrical
agree
involving
depth
dying
panel
struggle
peninsula
adults
novels
emerged
vienna
metro
debuted
shoes
tamil
songwriter
meets
prove
beating
instance
heaven
scared
sending
marks
artistic
passage
superior
shopping
retained
malaysia
technique
cheeks
warren
maintenance
destroy
extreme
allied
appearing
fill
advice
alabama
qualifying
policies
cleveland
hat
battery
smart
authors
soundtrack
acted
dated
lb
glance
equipped
coalition
funny
outer
ambassador
roy
possibility
couples
campbell
dna
loose
ethan
supplies
gonna
monster
shake
agents
frequency
springs
dogs
practices
gang
plastic
easier
suggests
gulf
blade
exposed
colors
industries
markets
pan
nervous
electoral
charts
legislation
ownership
mac
shield
copy
assault
socialist
abbey
monument
license
throne
employment
jay
replacement
charter
cloud
powered
suffering
accounts
oak
connecticut
wright
colour
crystal
context
welsh
networks
voiced
gabriel
jerry
forehead
mp
manage
schedule
remix
forests
occupation
print
nicholas
brazilian
strategic
vampires
engineers
roots
seek
correct
instrumental
und
alfred
backed
hop
stanley
robinson
traveled
wayne
welcome
austrian
exit
rates
strip
whereas
sing
adventure
bobby
rick
jamie
careful
components
cap
useful
personality
knee
pushing
hosts
protest
ca
ottoman
symphony
boundary
processes
considering
considerable
tons
cooper
trading
dear
conduct
illegal
apple
revolutionary
holiday
definition
harder
jacob
circumstances
destruction
popularity
grip
classified
liverpool
donald
baltimore
flows
seeking
honour
approval
mechanical
till
happening
statue
critic
immediate
describe
commerce
stare
indonesia
meat
rounds
boats
baker
orthodox
depression
worn
naked
claire
muttered
sentence
document
criticism
wished
vessel
spiritual
bent
virgin
parker
minimum
murray
lunch
danny
printed
compilation
keyboards
false
blow
belonged
raising
cutting
pittsburgh
shadows
hated
indigenous
jon
barry
scholar
ah
oliver
stick
susan
meetings
attracted
spell
romantic
ye
photo
demanded
customers
logan
revival
keys
modified
commanded
jeans
upset
raw
phil
hiding
resident
vincent
diamond
defeating
coverage
lucas
external
parks
franchise
helen
bible
successor
percussion
celebrated
il
lift
profile
clan
romania
mills
nobody
shrugged
fault
rhythm
initiative
breakfast
carbon
lasted
violent
wound
ken
killer
filmed
dollars
processing
remove
criticized
guests
sang
chemistry
legislature
disney
uniform
escaped
integrated
proposal
purple
denied
liquid
karl
influential
morris
nights
stones
intense
experimental
twisted
pace
nazi
mitchell
ny
blind
reporter
newspapers
centers
burn
basin
forgotten
surviving
filed
collections
monastery
losses
manual
couch
description
appropriate
tag
missions
sebastian
restoration
replacing
triple
elder
julia
warriors
benjamin
julian
convinced
stronger
amazing
declined
versus
merchant
happens
output
finland
bare
barbara
absence
ignored
dawn
injuries
producers
luis
kw
admit
expensive
electricity
nba
exception
symbol
ladies
shower
sheriff
characteristics
aimed
button
ratio
summit
angle
jury
bears
foster
vessels
pants
executed
evans
dozen
advertising
kicked
patrol
competitions
lifetime
principles
athletics
birmingham
sponsored
rob
nomination
acoustic
creature
longest
credits
harbor
dust
josh
territories
milk
infrastructure
completion
thailand
indians
leon
archbishop
assist
pitch
blake
girlfriend
serbian
operational
hence
sad
scent
fur
dj
sessions
hp
refer
exists
scientists
dirty
penalty
burst
portrait
seed
pole
limits
rival
stable
alpha
grave
constitutional
alcohol
flower
mystery
devil
architectural
relationships
habitat
larry
progressive
remote
cotton
preserved
reaches
cited
vast
scholarship
decisions
cbs
joy
teach
editions
knocked
eve
searching
participation
gap
animated
fate
excellent
na
alternate
saints
youngest
climbed
suggest
discussion
staying
choir
lakes
jacket
revenue
nevertheless
peaked
instrument
wondering
managing
neil
signing
terry
apply
clinical
brooklyn
aim
catherine
fuck
farmers
figured
ninth
pride
hugh
evolution
ordinary
involvement
comfortable
shouted
tech
encouraged
taiwan
representation
sharing
panic
exact
cargo
competing
fat
cried
occasions
pa
cabin
borders
utah
marcus
muscles
victorian
transition
warner
bet
permission
slave
terrible
shares
seth
uefa
possession
medals
benefits
colleges
lowered
mall
transit
publisher
harrison
deaths
elevation
asleep
machines
sigh
ash
argument
occasion
parent
leo
decline
contribution
concentration
opportunities
hispanic
guardian
extent
emotions
hips
mason
volumes
bloody
controversy
diameter
steady
mistake
phoenix
identify
violin
departure
richmond
spin
funeral
enemies
gear
connor
random
sergeant
grab
confusion
transmission
informed
op
leaning
sacred
suspended
thinks
gates
portland
luck
agencies
yours
hull
expert
muscle
layer
practical
sculpture
jerusalem
latest
lloyd
statistics
deeper
recommended
warrior
arkansas
mess
supports
greg
eagle
recovered
rated
concerts
rushed
stops
eggs
files
premiere
keith
delhi
turner
pit
affair
belief
paint
mate
victim
withdrew
bonus
styles
fled
glasgow
technologies
funded
nbc
adaptation
portrayed
cooperation
supporters
judges
bernard
justin
hallway
ralph
graduating
controversial
distant
continental
spider
bite
recognize
intention
mixing
egyptian
bow
tourism
suppose
claiming
tiger
dominated
participants
vi
nurse
tape
psychology
essential
touring
duo
voting
civilian
emotional
channels
apparent
hebrew
tommy
carrier
intersection
beast
hudson
lab
nova
bench
discuss
costa
detailed
behalf
driver
rocky
siege
friendship
honey
amy
hang
posted
governments
collins
respond
wildlife
preferred
operator
laura
pregnant
videos
dennis
suspected
boots
weird
automatic
businessman
alleged
placing
throwing
ph
mood
perry
venue
jet
remainder
passion
biological
boyfriend
dirt
buffalo
ron
segment
fa
abuse
genre
thrown
stroke
colored
stress
exercise
displayed
struggled
abroad
dramatic
wonderful
thereafter
madrid
component
widespread
tale
citizen
todd
monday
vancouver
overseas
forcing
crying
descent
discussed
substantial
ranks
regime
provinces
switch
drum
zane
ted
tribes
proof
lp
cream
researchers
volunteer
manor
silk
milan
donated
allies
venture
principle
delivery
enterprise
bars
witch
reminded
copper
pete
inter
links
colin
grinned
elsewhere
competitive
frequent
scream
tension
texts
submarine
finnish
defending
defend
pat
detail
affiliated
stuart
themes
villa
periods
tool
belgian
ruling
crimes
answers
folded
licensed
resort
demolished
hans
lucy
lion
traded
photographs
writes
craig
trials
generated
beth
noble
debt
percentage
yorkshire
erected
ss
viewed
grades
confidence
ceased
islam
telephone
retail
chile
roberts
sixteen
commented
hampshire
innocent
dual
pounds
checked
regulations
afghanistan
sung
rico
liberty
assets
bigger
options
angels
relegated
tribute
wells
attending
leaf
butler
romanian
forum
lisa
patterns
gmina
madison
hurricane
rev
bristol
elite
valuable
disaster
democracy
germans
freyja
loop
paying
populations
maine
sole
prayer
spencer
releases
doorway
bull
lover
midnight
conclusion
thirteen
lily
mediterranean
nhl
proud
sample
drummer
guinea
murphy
climb
instant
attributed
horn
ain
railways
steven
autumn
ferry
opponent
root
traveling
secured
corridor
stretched
tales
sheet
trinity
cattle
helps
indicates
manhattan
murdered
fitted
gentle
grandmother
mines
shocked
vegas
produces
caribbean
belong
continuous
desperate
drunk
trio
waved
raf
dealing
nathan
bat
murmured
interrupted
residing
scientist
pioneer
harold
aaron
delta
attempting
minority
mini
believes
chorus
tend
lots
eyed
indoor
load
shots
updated
jail
concerning
connecting
wealth
slaves
arrive
rangers
sufficient
rebuilt
cardinal
flood
muhammad
whenever
relation
runners
moral
repair
viewers
arriving
revenge
punk
assisted
bath
breathe
lists
innings
illustrated
whisper
nearest
voters
clinton
ties
ultimate
screamed
beijing
lions
andre
fictional
gathering
comfort
radar
suitable
dismissed
hms
ban
pine
wrist
atmosphere
voivodeship
bid
timber
giants
cameron
recovery
uss
identical
categories
switched
serbia
laughter
noah
ensemble
therapy
peoples
touching
pearl
platforms
everywhere
ballet
tables
lanka
herbert
outdoor
toured
derek
spaces
contested
swept
exclusive
slight
connections
winds
prisoner
collective
bangladesh
tube
wealthy
thai
isolated
select
insisted
pen
fortune
ticket
spotted
animation
enforcement
tanks
decides
wider
lowest
owen
nod
hitting
gregory
furthermore
magazines
fighters
solutions
pointing
requested
peru
reed
chancellor
knights
mask
worker
eldest
flames
reduction
volunteers
reporting
wire
advisory
endemic
origins
settlers
pursue
knock
consumer
eu
compound
creatures
mansion
sentenced
ivan
deployed
guitars
frowned
involves
mechanism
kilometers
perspective
shops
maps
terminus
duncan
alien
fist
bridges
heroes
fed
derby
swallowed
patent
sara
characterized
adventures
slide
hawaii
jurisdiction
organised
adelaide
walks
biology
se
rogers
swing
boundaries
prepare
implementation
stolen
certified
colombia
edwards
garage
recalled
rage
harm
nigeria
breast
furniture
pupils
settle
cuba
balls
client
alaska
linear
thrust
celebration
latino
genetic
terror
lightning
fee
lodge
establishing
skull
earning
hood
rebellion
wang
sporting
warned
missile
devoted
activist
porch
worship
fourteen
package
decorated
housed
chess
sailed
doctors
oscar
joan
treat
garcia
harbour
jeremy
traditions
dominant
jacques
relocated
amendment
sized
companion
volleyball
spun
acre
increases
stopping
loves
belongs
affect
drafted
tossed
scout
battles
filming
shoved
munich
tenure
vertical
romance
pc
argue
craft
ranging
www
opens
honest
tyler
yesterday
virtual
muslims
reveal
snake
immigrants
radical
screaming
speakers
firing
saving
belonging
ease
lighting
prefecture
blame
farmer
hungry
grows
rubbed
beam
sur
subsidiary
armenian
sao
dropping
conventional
microsoft
reply
qualify
spots
sweat
festivals
immigration
physician
discover
exposure
sandy
explanation
isaac
implemented
hart
initiated
connect
stakes
presents
heights
householder
pleased
tourist
regardless
slip
closest
sultan
brings
riley
preparation
aboard
slammed
baptist
experiment
ongoing
interstate
organic
playoffs
hindu
error
tours
tier
plenty
talks
trapped
excited
sank
ho
athens
denver
welfare
suburb
athletes
trick
diverse
belly
yelled
conversion
computers
conductor
abilities
sensitive
hello
dispute
measured
globe
rocket
prices
amsterdam
flights
tigers
inn
municipalities
emotion
references
airline
manufactured
pm
archaeological
interpretation
devon
comment
settlements
kissing
absolute
improvement
suite
impressed
barcelona
sullivan
jefferson
towers
jesse
julie
grandson
hi
gauge
regard
rings
interviews
trace
raymond
thumb
departments
burns
serial
bulgarian
scores
demonstrated
kyle
alberta
underneath
romanized
relieved
acquisition
phrase
cliff
reveals
han
cuts
merger
custom
nee
gilbert
graduation
assessment
cafe
difficulty
demands
swung
democrat
jennifer
commons
grove
completing
focuses
sum
substitute
bearing
stretch
reception
reflected
destination
pairs
survival
resource
promoting
doubles
messages
tear
parade
florence
harvey
incumbent
partial
framework
pedro
frozen
procedure
olivia
controls
shelter
temperatures
brisbane
tested
sits
marble
comprehensive
oxygen
leonard
inaugural
iranian
referring
quarters
attitude
mainstream
lined
mars
dakota
norfolk
unsuccessful
explosion
helicopter
congressional
inspector
bitch
seal
departed
divine
coaching
examination
punishment
manufacturer
sink
columns
unincorporated
signals
nevada
squeezed
dylan
dining
photos
martial
manuel
eighteen
elevator
brushed
plates
ministers
ivy
congregation
slept
specialized
taxes
curve
restricted
negotiations
likes
statistical
arnold
inspiration
execution
bold
intermediate
significance
margin
ruler
wheels
gothic
intellectual
dependent
listened
eligible
buses
widow
syria
earn
cincinnati
collapsed
recipient
secrets
accessible
philippine
maritime
goddess
clerk
surrender
breaks
playoff
database
ideal
beetle
aspect
soap
regulation
strings
expand
anglo
shorter
crosses
retreat
tough
coins
wallace
directions
pressing
shipping
locomotives
comparison
topics
nephew
distinction
honors
travelled
sierra
ibn
fortress
sa
recognised
carved
clients
intent
coaches
describing
bread
beaten
northwestern
merit
youtube
collapse
challenges
em
historians
objective
submitted
virus
attacking
drake
assume
diseases
marc
stem
leeds
farming
glasses
visits
nowhere
fellowship
relevant
carries
restaurants
experiments
bases
targets
shah
tenth
opponents
verse
territorial
writings
corruption
instruction
inherited
reverse
emphasis
employee
arch
keeps
rabbi
watson
payment
uh
nancy
venice
fastest
sexy
banned
adrian
ruth
touchdown
dollar
boards
metre
circles
edges
favour
comments
ok
travels
liberation
scattered
holland
permitted
diesel
kenya
den
originated
demons
resumed
dragged
rider
servant
blinked
extend
torn
input
meal
everybody
cylinder
kinds
camps
bullet
logic
croatian
evolved
healthy
fool
chocolate
wise
preserve
pradesh
respective
chicken
artificial
gross
corresponding
convicted
cage
caroline
dialogue
narrative
stranger
mario
br
christianity
failing
trent
commanding
buddhist
maurice
focusing
yale
bike
altitude
mouse
revised
veteran
pulls
theology
crashed
campaigns
legion
drag
excellence
customer
cancelled
intensity
excuse
liga
participating
contributing
printing
variable
curious
bin
legacy
renaissance
symptoms
binding
vocalist
dancer
grammar
gospel
democrats
ya
enters
sc
diplomatic
hitler
clouds
mathematical
quit
defended
oriented
fundamental
hardware
impressive
convince
confederate
guilt
chuck
sliding
magnetic
narrowed
petersburg
bulgaria
otto
phd
skill
reader
hopes
pitcher
reservoir
hearts
expecting
mysterious
bennett
imagined
seeds
monitor
fix
journalism
struggling
signature
ranch
encounter
photographer
observation
protests
influences
calendar
cruz
croatia
locomotive
hughes
shakespeare
basement
hook
uncredited
faded
theories
approaches
dare
phillips
filling
fury
obama
efficient
arc
deliver
min
raid
breeding
inducted
leagues
efficiency
axis
montana
eagles
supplied
instructions
karen
picking
indicating
trap
anchor
christians
tomb
vary
occasional
electronics
lords
readers
newcastle
faint
innovation
collect
situations
engagement
claude
mixture
peer
tissue
logo
lean
floors
architects
reducing
rope
ottawa
samples
banking
declaration
proteins
resignation
francois
saudi
advocate
exhibited
armor
twins
divorce
abraham
reviewed
jo
temporarily
matrix
pulse
curled
difficulties
bengal
usage
annie
riders
certificate
holes
warsaw
distinctive
jessica
mutual
customs
circular
eugene
removal
loaded
mere
vulnerable
depicted
generations
dame
heir
enormous
climbing
pitched
lessons
pilots
nepal
ram
google
preparing
brad
louise
renowned
liam
plaza
shaw
sophie
brilliant
bills
fucking
mainland
server
pleasant
seized
veterans
jerked
fail
beta
brush
radiation
stored
warmth
southeastern
nate
sin
raced
berkeley
joke
athlete
designation
trunk
roland
qualification
archives
heels
artwork
receives
judicial
reserves
woke
installation
abu
floating
fake
lesser
excitement
interface
concentrated
addressed
characteristic
amanda
saxophone
monk
auto
releasing
egg
dies
interaction
defender
ce
outbreak
glory
loving
sequel
http
awake
ski
enrolled
handling
rookie
brow
somebody
biography
warfare
amounts
contracts
presentation
fabric
dissolved
challenged
meter
psychological
lt
elevated
rally
accurate
hospitals
undergraduate
specialist
venezuela
exhibit
shed
nursing
protestant
fluid
structural
footage
jared
consistent
prey
succession
reflect
exile
lebanon
wiped
suspect
shanghai
resting
integration
preservation
marvel
variant
pirates
sheep
rounded
capita
sailing
colonies
manuscript
deemed
variations
clarke
functional
emerging
boxing
relaxed
curse
azerbaijan
heavyweight
nickname
editorial
rang
grid
tightened
earthquake
flashed
miguel
rushing
improvements
boxes
brooks
consumption
molecular
felix
societies
variation
aids
civic
graphics
professionals
realm
autonomous
receiver
delayed
workshop
militia
chairs
trump
canyon
harsh
extending
happiness
stake
eyebrows
embassy
wellington
hannah
sony
corners
bishops
swear
cloth
contents
xi
namely
commenced
stanford
nashville
courage
graphic
commitment
garrison
hamlet
clearing
rebels
attraction
literacy
cooking
ruins
temples
jenny
humanity
celebrate
hasn
freight
sixty
rebel
bastard
newton
deer
smiles
delaware
singers
approaching
assists
flame
boulevard
barrel
planted
pursuit
consequences
posts
shallow
invitation
rode
depot
ernest
kane
rod
concepts
preston
topic
chambers
striking
blast
arrives
descendants
montgomery
ranges
worlds
span
chaos
praise
fewer
sanctuary
mud
fbi
programmes
maintaining
unity
harper
bore
handsome
closure
tournaments
thunder
nebraska
linda
facade
puts
satisfied
argentine
dale
cork
dome
panama
tasks
experts
feeding
engage
bryan
um
quartet
melody
disbanded
sheffield
blocked
gasped
delay
kisses
maggie
connects
sts
poured
creator
publishers
guided
ellis
extinct
hug
gaining
complicated
poll
clenched
investigate
thereby
quantum
spine
cdp
humor
kills
administered
semifinals
encountered
ignore
commentary
bother
roosevelt
plains
halfway
flowing
cultures
crack
imprison
neighboring
gather
wolves
marathon
transformed
cruise
organisations
carol
punch
exhibitions
numbered
alarm
ratings
daddy
queens
colours
impression
guidance
liu
tactical
marshal
della
arrow
rested
feared
tender
owns
bitter
advisor
escort
spare
farms
grants
dragons
encourage
colleagues
cameras
sucked
pile
spirits
prague
statements
suspension
landmark
fence
torture
recreation
bags
survivors
pond
spy
predecessor
bombing
coup
protecting
transformation
glow
dug
priests
andrea
feat
barn
jumping
casualties
stern
auckland
pipe
serie
revealing
ba
trevor
mercy
spectrum
yang
consist
governing
collaborated
possessed
epic
comprises
blew
shane
lopez
honored
magical
sacrifice
judgment
perceived
hammer
mtv
baronet
tune
das
missionary
sheets
neutral
oral
threatening
attractive
shade
aims
seminary
estates
michel
wounds
refugees
manufacturers
mercury
syndrome
porter
hamburg
identification
upstairs
purse
widened
pause
cared
breathed
affiliate
santiago
prevented
celtic
fisher
recruited
byzantine
reconstruction
farther
diet
sake
au
spite
sensation
blank
separation
vladimir
armies
anime
accommodate
orbit
cult
sofia
archive
founders
sustained
disorder
honours
northeastern
mia
crops
violet
threats
blanket
fires
canton
followers
southwestern
prototype
voyage
assignment
altered
moderate
protocol
pistol
questioned
brass
lifting
math
authored
doug
dimensional
dynamic
pronounced
grateful
quest
uncomfortable
boom
presidency
stevens
relating
politicians
chen
barrier
quinn
diana
mosque
tribal
cheese
palmer
portions
sometime
chester
treasure
wu
bend
download
millions
reforms
registration
monitoring
ate
preliminary
brandon
invented
ps
eaten
exterior
intervention
ports
documented
log
displays
lecture
sally
favourite
vermont
lo
invisible
isle
breed
journalists
relay
speaks
backward
explore
midfielder
stefan
procedures
cannon
blond
kenneth
centered
servants
chains
libraries
malcolm
essex
henri
slavery
facts
fairy
coached
cassie
cats
washed
cop
announcement
item
vinyl
activated
marco
frontier
growled
curriculum
loyal
accomplished
leslie
ritual
kenny
vii
napoleon
hollow
hybrid
jungle
stationed
friedrich
counted
platinum
theatrical
seated
col
rubber
glen
diversity
healing
extends
id
provisions
administrator
columbus
tributary
te
assured
org
prestigious
examined
lectures
grammy
ronald
associations
bailey
allan
essays
flute
believing
consultant
proceedings
travelling
kit
kerala
yugoslavia
buddy
methodist
burial
centres
batman
discontinued
bo
dock
stockholm
lungs
citing
manga
steal
mumbai
iraqi
robot
celebrity
bride
broadcasts
abolished
pot
joel
overhead
franz
packed
reconnaissance
johann
acknowledged
introduce
handled
doctorate
developments
drinks
alley
palestine
proceeded
recover
bradley
grain
patch
afford
infection
nationalist
legendary
interchange
gen
gravity
exploration
amber
vital
wishes
powell
doctrine
elbow
screenplay
contribute
indonesian
pet
creates
enzyme
kylie
discipline
drops
manila
hunger
layers
suffer
fever
bits
monica
keyboard
manages
searched
appeals
testament
grande
reid
beliefs
congo
si
requiring
casey
regret
streak
rape
depends
syrian
sprint
pound
tourists
upcoming
pub
tense
practiced
echo
nationwide
guild
motorcycle
liz
chiefs
desired
elena
bye
precious
absorbed
relatives
booth
pianist
citizenship
exhausted
wilhelm
noting
quarterback
urge
hectares
ace
holly
blonde
davies
parked
sustainable
stepping
twentieth
galaxy
nest
chip
tan
shaft
paulo
requirement
paradise
tobacco
trans
renewed
vietnamese
suggesting
catching
holmes
enjoying
md
trips
colt
holder
butterfly
nerve
reformed
cherry
bowling
trailer
carriage
goodbye
appreciate
toy
joshua
interactive
enabled
involve
collar
determination
bunch
facebook
recall
shorts
superintendent
episcopal
frustration
giovanni
nineteenth
laser
array
circulation
armstrong
deals
painful
permit
discrimination
aires
retiring
cottage
ni
horizon
ellen
jamaica
ripped
fernando
chapters
playstation
patron
lecturer
navigation
behaviour
genes
georgian
export
solomon
rivals
swift
seventeen
rodriguez
princeton
sox
arguing
entity
casting
hank
criteria
oakland
geographic
milwaukee
reflection
expanding
conquest
dubbed
halt
brave
brunswick
doi
arched
curtis
divorced
somerset
streams
ugly
zoo
horrible
curved
buenos
fierce
dictionary
vector
theological
unions
handful
stability
chan
punjab
segments
altar
ignoring
gesture
monsters
pastor
thighs
unexpected
operators
coin
compiled
associates
improving
migration
pin
compact
collegiate
reserved
quarterfinals
roster
restore
assembled
hurry
oval
flags
martha
victories
argues
neo
drawings
symbols
performer
griffin
restrictions
editing
andrews
java
journals
arabia
compositions
dee
pierce
removing
hindi
casino
runway
civilians
minds
nasa
hotels
refuge
rent
retain
conferences
suburban
conducting
descended
massacre
ammunition
terrain
fork
souls
counts
chelsea
durham
drives
cab
perth
realizing
palestinian
finn
simpson
betty
moreover
particles
cardinals
tent
evaluation
extraordinary
inscription
wednesday
chloe
maintains
panels
ashley
trucks
cluster
sunlight
strikes
zhang
dialect
canon
tucked
collecting
maker
quoted
evan
franco
aria
buying
cleaning
eva
closet
provision
apollo
clinic
rat
necessarily
ac
venues
flipped
cent
spreading
trustees
checking
authorized
disappointed
notion
duration
trumpet
hesitated
topped
brussels
rolls
theoretical
hint
define
aggressive
repeat
wash
peaceful
optical
width
mcdonald
strict
copyright
investors
mar
jam
witnesses
sounding
miranda
michelle
privacy
hugo
harmony
valid
lynn
glared
nina
headquartered
diving
boarding
gibson
albanian
marsh
routine
dealt
enhanced
er
intelligent
targeted
enlisted
discovers
spinning
observations
pissed
smoking
rebecca
capitol
visa
varied
costume
indies
compensation
surgeon
thursday
arsenal
westminster
suburbs
rid
anglican
knots
foods
alumni
lighter
fraser
whoever
portal
scandal
gavin
advised
instructor
flooding
terrorist
teenage
interim
senses
duck
teen
thesis
abby
eager
overcome
newport
glenn
rises
shame
prompted
priority
forgot
bomber
nicolas
protective
cartoon
katherine
breeze
trusted
henderson
richardson
relax
banner
candy
palms
remarkable
legends
cricketer
essay
ordained
edmund
rifles
trigger
sail
alert
audiences
penn
sussex
siblings
pursued
indianapolis
resist
rosa
consequence
succeed
avoided
inland
counsel
profession
chronicle
hurried
eyebrow
eventual
bleeding
innovative
cure
committees
accounting
con
scope
hardy
heather
tenor
gut
herald
codes
tore
scales
wagon
luxury
tin
prefer
fountain
triangle
bonds
darling
convoy
dried
traced
beings
troy
slam
findings
smelled
joey
lawyers
outcome
steep
bosnia
configuration
shifting
toll
brook
performers
lobby
philosophical
construct
shrine
aggregate
boot
cox
phenomenon
savage
insane
reynolds
lifestyle
holdings
consideration
enable
edgar
mo
mama
fights
relegation
chances
atomic
hub
conjunction
awkward
reactions
currency
finale
kumar
underwent
steering
elaborate
gifts
comprising
melissa
veins
reasonable
sunshine
chi
solve
trails
inhabited
elimination
ethics
huh
ana
molly
consent
apartments
layout
marines
hunters
bulk
hometown
cracked
reads
neighbouring
withdrawn
admission
wingspan
damned
anthology
lancashire
brands
batting
forgive
cuban
awful
dimensions
imagination
dante
tracking
goalkeeper
groaned
workshops
confident
burton
gerald
milton
circus
uncertain
slope
copenhagen
sophia
fog
philosopher
portraits
accent
cycling
varying
gripped
larvae
garrett
specified
scotia
mature
luther
kurt
rap
aerial
ferdinand
heated
es
transported
nonetheless
motors
demanding
startled
ally
generate
caps
ghana
stained
demo
mentions
beds
ap
afterward
diary
utility
richards
conspiracy
conscious
shining
footsteps
observer
cyprus
urged
loyalty
developer
probability
olive
upgraded
gym
miracle
insects
graves
ourselves
hydrogen
amazon
katie
tickets
poets
planes
prevention
witnessed
dense
jin
randy
tang
warehouse
monroe
bang
archived
investigations
alec
granite
mineral
conflicts
controlling
aboriginal
carlo
mechanics
stan
stark
rhode
skirt
est
bombs
respected
imposed
limestone
deny
nominee
memphis
grabbing
disabled
amusement
aa
frankfurt
corn
referendum
varies
slowed
disk
firms
unconscious
incredible
clue
sue
twist
joins
idaho
chad
developers
computing
destroyer
mortal
tucker
kingston
choices
yu
carson
os
whitney
geneva
pretend
dimension
staged
plateau
maya
freestyle
rovers
hiv
tristan
classroom
prospect
diploma
lied
thermal
auxiliary
feast
iata
morocco
pounding
treasury
lithuania
considerably
dish
geological
matching
stumbled
destroying
marched
brien
advances
cake
nicole
belle
settling
measuring
directing
tuesday
bassist
capabilities
stunned
fraud
torpedo
anton
wisdom
surveillance
ruined
lawsuit
healthcare
theorem
halls
trend
aka
horizontal
dozens
acquire
lasting
swim
hawk
gorgeous
fees
vicinity
decrease
adoption
tactics
pakistani
draws
willie
burke
heath
algorithm
integral
powder
elliott
brigadier
jackie
tate
varieties
darker
cigarette
specimens
adds
exploded
finalist
cia
murders
arguments
nicknamed
acceptance
onwards
manufacture
robertson
jets
tampa
enterprises
blog
composers
nominations
ai
malta
inquiry
automobile
hosting
viii
rays
tilted
grief
museums
strategies
furious
euro
equality
cohen
poison
surrey
governed
ridiculous
moses
vanished
barnes
attract
morrison
istanbul
absent
rotation
petition
janet
satisfaction
custody
observatory
comedian
surfaces
pinyin
novelist
canterbury
oslo
monks
embrace
ibm
jealous
photograph
continent
dorothy
marina
doc
excess
holden
allegation
stack
avoiding
lance
storyline
majesty
spike
dos
bradford
raven
travis
classics
proven
voltage
pillow
fists
butt
interpreted
gage
telegraph
lens
promising
expelled
casual
collector
zones
silly
nintendo
downstairs
chef
suspicious
afl
flies
vacant
uganda
pregnancy
condemned
lutheran
estimates
cheap
decree
saxon
proximity
stripped
idiot
deposits
contrary
presenter
magnus
glacier
im
offense
edwin
upright
bolt
toss
geographical
environments
delicate
marking
abstract
xavier
nails
windsor
plantation
occurring
equity
saskatchewan
fears
drifted
sequences
vegetation
revolt
sooner
fusion
opposing
nato
skating
ruin
lease
edit
flora
anxiety
ruby
tel
bout
taxi
emmy
frost
rainbow
compounds
foundations
rainfall
assassination
nightmare
dominican
deserve
orlando
intact
armenia
calgary
valentine
marion
proclaimed
theodore
bells
courtyard
thigh
gonzalez
console
troop
minimal
monte
everyday
supporter
terrorism
buck
presbyterian
activists
carpet
rubbing
uprising
cute
conceived
millennium
cello
velocity
ji
rescued
cardiff
rex
concentrate
senators
beard
rendered
glowing
battalions
scouts
competitors
sculptor
catalogue
arctic
ion
raja
bicycle
wow
glancing
lawn
gentleman
lighthouse
publish
predicted
calculated
variants
strain
winston
deceased
touchdowns
brady
caleb
sinking
echoed
crush
hon
blessed
protagonist
hayes
endangered
magnitude
editors
estimate
responsibilities
backup
laying
consumed
sealed
zurich
lovers
frustrated
ahmed
kicking
mit
treasurer
biblical
refuse
terrified
pump
genuine
imprisonment
refuses
plymouth
lou
tara
trembling
antarctic
ton
learns
crap
crucial
faction
atop
wrap
lancaster
odds
hopkins
erik
lyon
bros
snap
locality
tips
empress
crowned
cal
acclaimed
chuckled
clara
sends
mild
towel
wishing
assuming
interviewed
interactions
eden
cups
helena
indie
beck
batteries
filipino
wizard
parted
traces
rows
idol
albany
delegates
discussions
notre
instructed
belgrade
highways
suggestion
lauren
possess
orientation
alexandria
abdul
beats
salary
reunion
ludwig
alright
wagner
intimate
pockets
slovenia
hugged
brighton
merchants
cruel
stole
trek
slopes
repairs
enrollment
underlying
promotional
counting
boeing
isabella
naming
keen
bacteria
listing
belfast
ussr
lithuanian
anybody
ribs
sphere
martinez
cock
embarrassed
proposals
fragments
nationals
premises
fin
alpine
matched
bounded
jace
sleeve
gaming
pier
populated
evident
frances
flooded
frightened
pour
trainer
framed
visitor
challenging
pig
wickets
infected
email
arose
reward
ecuador
oblast
vale
ch
shuttle
bach
rankings
forbidden
cornwall
accordance
salem
consumers
bruno
fantastic
toes
machinery
resolved
julius
remembering
propaganda
iceland
bombardment
tide
contacts
wives
concerto
macdonald
albania
implement
daisy
tapped
sudan
helmet
angela
mistress
crop
sunk
finest
hostile
boxer
fr
paths
adjusted
habit
ballot
supervision
soprano
bullets
wicked
sunset
regiments
lamp
performs
app
rabbit
digging
incidents
entries
dishes
introducing
freshman
slot
jill
tackles
baroque
backs
lone
sponsor
destiny
altogether
convert
consensus
shapes
demonstration
feminist
auction
artifacts
strongest
twitter
halifax
allmusic
mighty
smallest
precise
alexandra
viola
manuscripts
dancers
ari
managers
monuments
blades
barracks
springfield
maiden
consolidated
electron
berry
airing
wheat
nobel
inclusion
blair
payments
geography
bee
cc
eleanor
react
afc
manitoba
su
lineup
recreational
investments
airborne
disappointment
edmonton
viewing
renovation
infant
bankruptcy
roses
aftermath
pavilion
carpenter
withdrawal
ladder
discussing
popped
reliable
rochester
curves
bombers
rao
reverend
decreased
choosing
stiff
consulting
naples
crawford
tracy
ka
ribbon
cops
crushed
deciding
unified
teenager
accepting
flagship
explorer
poles
sanchez
inspection
revived
skilled
induced
exchanged
flee
locals
tragedy
swallow
loading
hanna
demonstrate
salvador
flown
contestants
civilization
wanna
rhodes
fletcher
hector
knocking
considers
nash
mechanisms
sensed
walt
unclear
renovated
madame
crews
governmental
undertaken
monkey
fatal
armored
copa
caves
governance
grasp
perception
certification
froze
damp
tugged
wyoming
newman
nerves
curiosity
graph
withdraw
tunnels
dull
meredith
moss
exhibits
neighbors
communicate
accuracy
explored
raiders
republicans
secular
kat
superman
penny
criticised
freed
update
conviction
wade
ham
likewise
delegation
gotta
doll
promises
technological
myth
nationality
resolve
convent
sharon
dig
sip
coordinator
entrepreneur
fold
capability
councillor
synonym
blown
swan
cursed
jonas
haired
sofa
canvas
keeper
rivalry
rapper
speedway
swords
postal
maxwell
estonia
potter
recurring
errors
cognitive
claws
nadu
roberto
bce
wrestler
ellie
infinite
ink
presumably
finite
staircase
noel
patricia
nacional
chill
eternal
tu
preventing
prussia
fossil
limbs
ernst
frog
perez
rene
pizza
prussian
molecules
regulatory
answering
opinions
sworn
lengths
hypothesis
upward
habitats
seating
ancestors
drank
yield
hd
synthesis
researcher
modest
mothers
peered
voluntary
homeland
acclaim
static
valve
luxembourg
alto
carroll
fe
receptor
norton
ambulance
johnston
catholics
depicting
elephant
gloria
mentor
badge
ahmad
distinguish
remarked
councils
allison
advancing
detection
crowded
cooperative
ankle
mercedes
dagger
surrendered
pollution
commit
subway
jeffrey
lesson
sculptures
provider
membrane
timothy
rectangular
fiscal
heating
teammate
basket
particle
anonymous
deployment
missiles
courthouse
proportion
shoe
sec
complaints
forbes
blacks
remind
sizes
overwhelming
autobiography
natalie
risks
contestant
countryside
babies
scorer
invaded
enclosed
proceed
hurling
disorders
reflecting
cruiser
graduates
freeway
investigated
ore
deserved
maid
blocking
phillip
jorge
shakes
dove
mann
variables
lacked
burden
accompanying
que
organizing
provisional
complained
tubes
juice
georges
krishna
mick
labels
thriller
laps
arcade
sage
snail
shannon
fi
laurence
seoul
vacation
presenting
hire
churchill
savannah
testimony
suited
speeds
toys
romans
mlb
flowering
measurement
talented
kay
settings
charleston
expectations
shattered
achieving
triumph
ceremonies
portsmouth
lanes
mandatory
loser
stretching
cologne
realizes
seventy
cornell
careers
webb
americas
budapest
ava
suspicion
yo
conrad
sterling
jessie
rector
transform
organize
loans
christine
volcanic
warrant
slender
summers
subfamily
newer
danced
dynamics
rhine
proceeds
heinrich
gastropod
commands
sings
facilitate
easter
ra
positioned
responses
expense
fruits
yanked
imported
velvet
vic
primitive
tribune
baldwin
neighbourhood
donna
rip
hay
pr
espn
welcomed
qualifier
glare
highland
timing
shells
eased
geometry
louder
exciting
slovakia
savings
prairie
marching
rafael
tonnes
curtain
preceding
shy
heal
greene
worthy
detachment
bury
sherman
reinforced
seeks
bottles
contracted
duchess
outfit
walsh
mickey
geoffrey
archer
squeeze
dawson
eliminate
invention
neal
stance
dealer
coral
maple
retire
polo
simplified
hid
watts
backwards
jules
genesis
mt
frames
rebounds
burma
woodland
moist
santos
whispers
drained
subspecies
streaming
ulster
burnt
correspondence
maternal
gerard
denis
stealing
genius
duchy
inaugurated
momentum
suits
placement
sovereign
clause
thames
confederation
reservation
sketch
yankees
lets
rotten
charm
hal
verses
ultra
dot
salon
citation
adopt
winnipeg
mist
allocated
cairo
jenkins
interference
objectives
portfolio
armoured
sectors
initiatives
integrity
exercises
robe
tap
ab
gazed
distracted
rulers
favorable
jerome
tended
cart
factories
diplomat
valued
gravel
charitable
calvin
exploring
chang
shepherd
terrace
pdf
pupil
reflects
ups
governors
shelf
depths
trailed
crest
tackle
hatred
clare
makers
ethiopia
longtime
detected
embedded
lacking
slapped
rely
thomson
anticipation
iso
morton
successive
agnes
screenwriter
straightened
philippe
playwright
haunted
licence
iris
intentions
sutton
logical
branded
licked
tipped
silva
ricky
narrator
requests
greeted
supernatural
cow
lung
refusing
employer
strait
gaelic
liner
zoe
sabha
driveway
harvest
prints
bates
threshold
algebra
ira
wherever
coupled
assumption
picks
designers
raids
gentlemen
roller
blowing
leipzig
locks
screw
dressing
strand
scar
dwarf
depicts
nods
differ
boris
yuan
flip
mob
invested
questioning
applying
shout
gameplay
blamed
illustrations
bothered
rehabilitation
envelope
rumors
miners
leicester
subtle
kerry
ferguson
premiership
ne
bengali
prof
catches
remnants
dana
shouting
presidents
baltic
ought
ghosts
dances
sailors
shirley
fancy
dominic
madonna
bark
buttons
gymnasium
ashes
liver
toby
oath
providence
doyle
evangelical
nixon
cement
carnegie
embarked
hatch
surroundings
guarantee
needing
pirate
essence
filter
crane
hammond
projected
immune
percy
twelfth
regent
doctoral
damon
mikhail
lu
elect
realised
abortion
acute
screening
mythology
steadily
frown
nottingham
kirk
wa
minneapolis
module
algeria
mc
nautical
encounters
surprising
statues
availability
shirts
pie
alma
brows
munster
mack
soup
crater
tornado
sanskrit
cedar
explosive
bordered
dixon
planets
stamp
exam
happily
carriers
kidnapped
accommodation
emigrated
knockout
correspondent
violation
profits
peaks
lang
specimen
agenda
ancestry
pottery
spelling
equation
ki
linking
debris
asylum
buddhism
teddy
gazette
dental
eligibility
utc
fathers
averaged
zimbabwe
francesco
coloured
hissed
translator
lynch
mandate
humanities
mackenzie
uniforms
lin
asset
mhz
fitting
samantha
genera
wei
rim
beloved
shark
riot
entities
expressions
indo
carmen
slipping
owing
abbot
neighbor
sidney
rats
recommendations
encouraging
squadrons
anticipated
commanders
conquered
donations
diagnosed
divide
guessed
decoration
vernon
auditorium
revelation
conversations
herzegovina
dash
alike
protested
lateral
herman
accredited
mg
freeman
mel
fiji
crow
crimson
livestock
humanitarian
bored
oz
whip
legitimate
alter
grinning
spelled
anxious
oriental
wesley
carnival
controller
detect
bowed
educator
kosovo
macedonia
occupy
mastering
stephanie
janeiro
para
unaware
nurses
noon
cam
ranger
sociology
polar
rica
neill
holocaust
doubled
lust
decent
cooling
unveiled
nsw
homer
chapman
meyer
dive
mae
reagan
expertise
darwin
brooke
sided
prosecution
investigating
comprised
petroleum
genres
reluctant
trilogy
johns
vegetables
corpse
highlighted
lounge
pension
elegant
aided
ivory
beatles
amelia
cain
dubai
sunny
immigrant
babe
click
underwater
pepper
combining
mumbled
atlas
horns
accessed
ballad
physicians
gestured
rpm
freak
louisville
corporations
patriots
prizes
rational
warn
modes
decorative
overnight
din
troubled
phantom
monarch
sheer
generals
guidelines
organs
addresses
enhance
curling
parishes
cord
linux
caesar
deutsche
bavaria
coleman
cyclone
bacon
petty
hampton
diagnosis
throws
complexity
rita
disputed
pablo
marketed
trafficking
examine
plague
formats
vault
faithful
webster
highlights
phones
vacuum
sandwich
modeling
bolivia
clergy
qualities
isabel
wears
screams
reunited
annoyed
bra
differential
transmitter
tattoo
container
poker
excessive
resides
cowboys
augustus
trash
providers
statute
retreated
balcony
reversed
void
storey
preceded
masses
leap
laughs
neighborhoods
wards
schemes
falcon
santo
battlefield
pad
ronnie
thread
lesbian
venus
beg
sandstone
daylight
punched
gwen
analog
stroked
wwe
acceptable
measurements
dec
toxic
adequate
surgical
economist
parameters
varsity
quantity
ella
countess
generating
precision
diamonds
expressway
ga
uruguay
talents
galleries
expenses
scanned
colleague
outlets
ryder
lucien
paramount
syracuse
dim
fangs
gown
sweep
toyota
missionaries
websites
sentences
adviser
val
trademark
spells
patience
starter
slim
toe
incredibly
shoots
elliot
nobility
cowboy
endorsed
gardner
tendency
persuaded
organisms
emissions
kazakhstan
amused
boring
chips
themed
llc
constantinople
chasing
systematic
guatemala
borrowed
erin
carey
highlands
struggles
wong
exceptions
develops
enlarged
kindergarten
castro
leigh
zombie
juvenile
consul
sailor
hyde
clarence
intensive
pinned
nasty
jung
clayton
stuffed
exceptional
ix
apostolic
transactions
exempt
swinging
cove
religions
shields
dairy
bypass
pursuing
bug
joyce
bombay
chassis
southampton
chat
interact
redesignated
nascar
pray
salmon
rigid
regained
malaysian
grim
publicity
constituted
capturing
toilet
delegate
tray
drift
striker
weakened
trinidad
mitch
itv
defines
transmitted
ming
scarlet
nodding
fitzgerald
fu
sp
tooth
standings
virtue
chateau
gloves
lid
hurting
conservatory
sinclair
reopened
sympathy
nigerian
strode
advocated
optional
chronic
discharge
suck
compatible
laurel
stella
shi
fails
wage
dodge
informal
sorts
levi
buddha
villagers
chronicles
heavier
summoned
gateway
eleventh
jewelry
translations
seas
fiber
pyramid
cubic
dragging
caring
android
contacted
lunar
kai
lisbon
patted
sacramento
theft
madagascar
subtropical
disputes
ta
holidays
piper
willow
mare
cane
itunes
newfoundland
benny
companions
dong
raj
observe
roar
charming
plaque
tibetan
fossils
enacted
manning
bubble
tina
tanzania
funk
swamp
deputies
cloak
ufc
scenario
par
scratch
metals
anthem
guru
engaging
dialects
nineteen
cecil
duet
disability
messenger
unofficial
defunct
eds
moonlight
drainage
surname
puzzle
honda
switching
conservatives
mammals
knox
broadcaster
sidewalk
cope
benson
princes
peterson
bedford
sharks
eli
wreck
alberto
gasp
archaeology
lgbt
teaches
securities
compromise
waving
coordination
davidson
visions
leased
possibilities
eighty
jun
fernandez
enthusiasm
assassin
sponsorship
reviewer
kingdoms
estonian
laboratories
applies
verb
celebrations
rowing
lightweight
submit
mvp
balanced
dude
metric
magnificent
mound
brett
mohammad
mistakes
irregular
sanders
betrayed
shipped
surge
reporters
termed
georg
pity
verbal
bulls
abbreviated
enabling
appealed
sicily
sting
heel
sweetheart
bart
spacecraft
brutal
monarchy
aberdeen
cameo
diane
survivor
clyde
complaint
clarinet
delicious
chilean
karnataka
coordinates
panties
pretending
ar
kiev
bella
tends
distances
catalog
launching
instances
telecommunications
portable
lindsay
vatican
angles
aliens
marker
stint
screens
bolton
judy
wool
benedict
plasma
europa
spark
imaging
filmmaker
contributor
opted
stamps
apologize
financing
butter
gideon
sophisticated
alignment
avery
chemicals
speculation
prominence
immortal
institutional
inception
wrists
identifying
tribunal
derives
gains
papal
preference
linguistic
vince
operative
brewery
unemployment
boyd
albeit
prophet
bi
asteroid
cleaned
radius
temper
telugu
jerk
viscount
menu
glimpse
yacht
hawaiian
baden
laptop
readily
monetary
offshore
scots
watches
upgrade
needle
xbox
lea
encyclopedia
flank
fingertips
delight
teachings
confirm
roth
beaches
midway
winters
teasing
daytime
beverly
gambling
bonnie
regulated
clement
hermann
tricks
knot
detached
ecological
owed
specialty
byron
inventor
bats
stays
screened
unesco
midland
trim
affection
jess
feedback
chennai
strained
heartbeat
wrapping
overtime
pleaded
mon
leisure
oclc
feathers
angelo
thirds
nuts
surveys
clever
gill
commentator
darren
rides
gibraltar
dissolution
dedication
shin
meals
saddle
elvis
reds
chaired
taller
appreciation
functioning
niece
favored
advocacy
robbie
criminals
suffolk
yugoslav
passport
constable
congressman
hastings
vera
consecrated
ecclesiastical
confined
muller
floyd
nora
paved
cumberland
ned
saga
spiral
appreciated
yi
collaborative
treating
similarities
feminine
finishes
jade
import
champagne
mice
securing
celebrities
helsinki
attributes
cousins
phases
ache
lucia
gandhi
submission
vicar
spear
shine
tasmania
biting
detention
constitute
tighter
seasonal
terrestrial
matthews
parody
philharmonic
strangers
encoded
consortium
guaranteed
regards
shifts
tortured
collision
supervisor
inform
broader
insight
theaters
armour
emeritus
blink
incorporates
mapping
handball
flexible
generous
thief
carr
loses
prose
ucla
romeo
generic
metallic
realization
damages
mk
commissioners
zach
default
helicopters
lengthy
stems
spa
partnered
spectators
rogue
indication
penalties
teresa
sen
dalton
irving
photographic
dell
deaf
peters
excluded
unsure
patterson
crawled
resided
whipped
latvia
slower
ecole
pipes
employers
maharashtra
comparable
va
textile
pageant
alphabet
binary
irrigation
chartered
choked
antoine
offs
waking
supplement
quantities
demolition
regain
locate
urdu
folks
alt
scary
andreas
whites
classrooms
mw
aesthetic
publishes
valleys
guides
cubs
johannes
bryant
conventions
affecting
drain
awesome
isolation
prosecutor
ambitious
apology
captive
downs
atmospheric
lorenzo
aisle
beef
foul
kidding
composite
disturbed
illusion
natives
emi
rockets
riverside
wartime
painters
adolf
melted
uncertainty
simulation
hawks
progressed
meantime
builder
spray
breach
unhappy
regina
russians
determining
tram
aging
garion
rented
mister
diaz
terminated
clip
depend
disco
owe
defenders
shiva
notorious
disbelief
shiny
worcester
trailing
undertook
islander
belarus
limitations
watershed
fuller
overlooking
utilized
raphael
synthetic
breakdown
klein
moaned
memoir
lamb
practicing
cellular
arrows
exotic
witches
charted
rey
hut
hierarchy
subdivision
freshwater
giuseppe
aloud
reyes
qatar
marty
sideways
jude
prayers
mccarthy
softball
blend
damien
wholly
erupted
lebanese
negro
revenues
tasted
comparative
teamed
transaction
labeled
maori
sovereignty
parkway
trauma
gran
malay
advancement
descendant
buzz
salvation
inventory
symbolic
antarctica
mps
mohammed
myanmar
holt
submarines
tones
locker
patriarch
bangkok
emerson
remarks
predators
kin
afghan
confession
norwich
rental
emerge
advantages
rca
shortened
storms
aidan
autonomy
compliance
dudley
atp
motto
documentation
summary
professors
spectacular
christina
archdiocese
flashing
innocence
remake
psychic
reef
scare
employ
rs
sticks
meg
gus
leans
accompany
bergen
tomas
doom
wages
pools
breasts
alison
outline
brittany
breakthrough
willis
realistic
competitor
pike
picnic
icon
designing
commercials
washing
villain
skiing
micro
costumes
auburn
halted
executives
logistics
cycles
vowel
applicable
barrett
exclaimed
eurovision
eternity
ramon
modifications
sweeping
disgust
torch
aviv
ensuring
rude
dusty
sonic
donovan
outskirts
cu
pathway
disciplines
acids
cadet
paired
sketches
marriages
folding
peers
slovak
implies
admired
leopold
instinct
attained
weston
megan
horace
dorsal
ingredients
evolutionary
complications
deity
lethal
brushing
levy
deserted
institutes
delivering
telescope
coronation
motivated
rapids
luc
flicked
pays
volcano
tanner
weighed
crowds
frankie
gifted
addressing
granddaughter
winding
constantine
gomez
landscapes
rudolf
anthropology
slate
werewolf
astronomy
circa
rouge
dreaming
sack
knelt
drowned
naomi
prolific
tracked
freezing
herb
agony
randall
twisting
wendy
deposit
touches
vein
wheeler
batted
retaining
tire
compare
specification
daemon
nigel
merry
recommendation
czechoslovakia
sandra
ng
roma
lambert
inheritance
sheikh
winchester
cries
examining
comeback
cuisine
nave
ko
retrieve
tomatoes
barker
polished
defining
irene
lantern
personalities
begging
tract
swore
omaha
brotherhood
haiti
exeter
steele
dumb
pearson
surveyed
elisabeth
trends
fritz
premium
bugs
fraction
viking
tug
inserted
confronted
distress
crashing
brent
turks
resign
cambodia
gabe
sauce
evelyn
extant
clusters
quarry
teenagers
luna
affiliation
drill
panthers
scenic
libya
anita
strengthen
inscriptions
lace
sued
judith
riots
mint
preparations
midst
dub
challenger
mock
cf
displaced
wicket
breaths
enables
schmidt
analyst
ag
highlight
automotive
axe
josef
newark
resembles
flushed
mum
traits
commodore
incomplete
warming
titular
ceremonial
ethical
celebrating
eighteenth
cao
lima
medalist
mobility
strips
snakes
miniature
zagreb
barton
escapes
umbrella
automated
doubted
differs
cooled
georgetown
dresden
cooked
fade
wyatt
rna
jacobs
carlton
abundant
stereo
boost
madras
inning
spur
ip
malayalam
begged
osaka
groan
escaping
charging
dose
vista
bud
papa
communists
advocates
edged
tri
resemble
peaking
necklace
fried
montenegro
saxony
goose
glances
stuttgart
curator
recruit
grocery
sympathetic
lotus
randolph
ancestor
succeeding
jupiter
macedonian
hiking
handing
fischer
garbage
node
prone
singular
papua
inclined
attractions
italia
pouring
motioned
grandma
garnered
jacksonville
corp
ego
ringing
aluminum
ordering
drawer
traders
synagogue
resistant
wandering
fragile
fiona
teased
var
hardcore
soaked
jubilee
decisive
exposition
mercer
poster
valencia
hale
kuwait
tavern
gamma
johan
airways
amino
gil
vocational
domains
torres
generator
folklore
outcomes
canberra
shooter
fl
beams
confrontation
feb
aligned
forestry
pipeline
jax
motorway
conception
decay
coffin
stalin
escorted
minded
sitcom
purchasing
twilight
veronica
additions
passive
tensions
straw
frequencies
refugee
cultivation
christie
clary
bulletin
crept
disposal
processor
crescent
bmw
emphasized
whale
nazis
aurora
dwelling
hauled
sponsors
toledo
mega
ideology
theatres
tessa
cerambycidae
saves
turtle
cone
suspects
kara
rusty
yelling
greeks
mozart
shades
cocked
participant
shire
spit
freeze
necessity
inmates
nielsen
councillors
loaned
uncommon
omar
peasants
botanical
offspring
daniels
formations
jokes
pioneers
sigma
licensing
wheelchair
polite
liquor
pratt
trustee
forewings
balloon
kilometre
camping
explicit
shawn
foolish
teammates
nm
hassan
carrie
judged
satisfy
vanessa
knives
selective
cnn
flowed
eclipse
stressed
eliza
mathematician
cease
cultivated
commissions
browns
destroyers
sheridan
meadow
minerals
downstream
clash
gram
memoirs
ventures
baha
seymour
archie
midlands
edith
fare
flynn
invite
canceled
tiles
stabbed
boulder
incorporate
amended
camden
facial
mollusk
unreleased
descriptions
yoga
grabs
raises
ramp
shiver
coined
pioneering
tunes
qing
warwick
tops
melanie
giles
wandered
annexed
nov
unnamed
organizational
airplane
normandy
stoke
whistle
blessing
violations
chased
holders
shotgun
outlet
reactor
tires
tearing
shores
fortified
mascot
constituencies
nc
columnist
productive
tibet
lineage
hooked
oct
tapes
judging
cody
hansen
kashmir
triggered
solved
cliffs
resisted
anatomy
protesters
transparent
implied
injection
mattress
excluding
defenses
devotion
growl
liberals
weber
phenomena
atoms
plug
mortality
apprentice
howe
convincing
aaa
swimmer
barber
leone
sodium
def
nowadays
arise
gloucester
corrected
dignity
norm
erie
elders
evacuated
sylvia
compression
hartford
pose
backpack
reasoning
accepts
wipe
millimetres
marcel
dodgers
albion
overwhelmed
aerospace
oaks
showcase
acknowledge
recovering
nolan
ashe
hurts
geology
fashioned
farewell
swollen
shrug
marquis
wimbledon
rue
commemorate
reduces
experiencing
inevitable
calcutta
intel
murderer
sticking
fisheries
imagery
bloom
brake
gustav
hesitation
memorable
po
viral
beans
accidents
tunisia
antenna
spilled
consort
treatments
aye
perimeter
donation
hostage
migrated
banker
addiction
apex
lil
trout
conscience
rams
sands
genome
passionate
troubles
amid
higgins
exceed
vikings
payne
muscular
defendant
sucking
ibrahim
fuselage
claudia
vfl
europeans
snails
interval
preparatory
statewide
tasked
lacrosse
viktor
angola
flint
implications
employs
teens
patrons
stall
weekends
barriers
scrambled
nucleus
tehran
jenna
parsons
lifelong
robots
displacement
precipitation
knuckles
clutched
marrying
ecology
marx
accusations
declare
scars
kolkata
mat
meadows
bermuda
skeleton
finalists
vintage
crawl
coordinate
affects
subjected
orchestral
mistaken
mirrors
dipped
relied
arches
candle
incorporating
fond
basilica
owl
fringe
rituals
whispering
stirred
feud
tertiary
slick
goat
honorable
whereby
skip
ricardo
stripes
parachute
adjoining
submerged
synthesizer
intend
ninety
phi
beaver
partition
fellows
alexis
carlisle
bizarre
fraternity
doubts
icy
cbc
aquatic
sneak
sonny
airports
crude
supervised
spatial
merge
alfonso
corrupt
scan
undergo
disabilities
colombian
comparing
dolphins
perkins
reprinted
unanimous
bounced
hairs
underworld
midwest
semester
bucket
paperback
miniseries
coventry
demise
demonstrations
sensor
rotating
yan
soils
hyderabad
labs
brakes
grandchildren
negotiated
rover
ferrari
continuation
directorate
augusta
stevenson
counterpart
gore
nursery
rican
ave
pastoral
repertoire
asserted
discovering
nordic
styled
fiba
cunningham
harley
middlesex
survives
tumor
tempo
zack
aiming
lok
urgent
devils
contractor
turin
bliss
repaired
simmons
moan
astronomical
cr
negotiate
lyric
lara
bred
clad
angus
pbs
engineered
posed
hernandez
possessions
elbows
psychiatric
strokes
confluence
electorate
lifts
campuses
lava
alps
physicist
woody
juliet
reformation
sparhawk
complement
suppressed
jewel
floated
continuity
inability
melting
scanning
paula
flour
judaism
safer
vague
solving
curb
gable
bees
expired
miserable
cassidy
dominion
cupped
robbery
facto
amos
warden
resume
tallest
marvin
ing
pounded
usd
declaring
gasoline
darkened
sophomore
erection
gossip
televised
risen
dial
pillars
passages
profound
arabian
ashton
silicon
nail
fleming
firearms
ducked
circuits
blows
waterloo
titans
atom
fireplace
cheshire
financed
activation
algorithms
constituent
catcher
cherokee
partnerships
sexuality
platoon
tragic
vivian
guarded
whiskey
meditation
poetic
porto
listeners
dominance
kendra
mona
chandler
factions
salisbury
attitudes
derivative
intake
paced
javier
illustrator
barrels
bias
cockpit
burnett
dreamed
ensuing
receptors
someday
hawkins
mattered
slavic
jesuit
cameroon
wasted
tai
wax
lowering
victorious
freaking
outright
hancock
librarian
sensing
bald
calcium
myers
tablet
announcing
barack
shipyard
pharmaceutical
greenwich
flush
medley
patches
wolfgang
pt
speeches
acquiring
exams
nikolai
hayden
kannada
reilly
waitress
abdomen
devastated
capped
pseudonym
pharmacy
fulfill
paraguay
clicked
archipelago
syndicated
lumber
orgasm
rejection
clifford
lorraine
advent
mafia
rodney
brock
cassette
chamberlain
despair
mongolia
sensors
developmental
upstream
spanning
trombone
basque
seeded
interred
renewable
rhys
leapt
revision
molecule
chord
vicious
nord
shivered
arlington
debts
corpus
sunrise
bays
blackburn
centimetres
shuddered
gm
gripping
cartoons
isabelle
orbital
seals
proving
refusal
strengthened
bust
assisting
baghdad
batsman
portrayal
mara
pushes
spears
og
reside
nathaniel
brennan
confirmation
caucus
markings
yemen
nobles
ku
lazy
viewer
catalan
encompass
sawyer
substance
evacuation
sergio
persuade
dover
tolerance
penguin
cum
jockey
insufficient
townships
occupying
declining
plural
processed
projection
puppet
flanders
introduces
liability
gymnastics
antwerp
taipei
hobart
candles
jeep
wes
observers
chaplain
bundle
glorious
hazel
flung
sol
excavations
dumped
stares
sh
bangalore
triangular
icelandic
intervals
expressing
turbine
songwriting
crafts
jasmine
ditch
rite
entertaining
comply
sorrow
wrestlers
basel
emirates
marian
rivera
helpful
caution
downward
networking
darted
genocide
emergence
replies
specializing
spokesman
convenient
unlocked
fading
augustine
concentrations
resemblance
elijah
investigator
andhra
promotes
bean
fleeing
wan
simone
announcer
lydia
weaver
residency
modification
stretches
nat
lowe
lacks
pam
tile
concealed
inferior
abdullah
residences
tissues
vengeance
moisture
peculiar
groove
zip
bologna
jennings
ninja
oversaw
zombies
pumping
batch
livingston
emerald
installations
peel
nitrogen
rama
schooling
strands
responding
werner
lime
casa
targeting
underway
hemisphere
lester
occupies
griffith
angrily
reorganized
courtney
deposited
estadio
dunn
exiled
checks
successes
blu
assessed
observing
sacked
spiders
kn
mu
nodes
prosperity
audrey
divisional
broncos
tangled
adjust
feeds
erosion
paolo
surf
directory
snatched
humid
admiralty
screwed
gt
reddish
modules
trench
lamps
bind
leah
bucks
competes
transcription
isles
clutching
pga
cyclist
inflation
flats
ragged
unnecessary
stubborn
coordinated
harriet
baba
disqualified
insect
wolfe
reinforcements
rocked
duel
winked
embraced
bricks
hiatus
defeats
pending
jealousy
lena
gdp
colorful
stein
kidney
underwear
wanderers
guardians
roared
habits
permits
gp
uranium
punished
disguise
bundesliga
elise
dundee
erotic
partisan
pi
collectors
float
rendering
behavioral
bucharest
ser
hare
valerie
corporal
nutrition
proportional
immense
pavement
sutherland
crouched
suzuki
trades
endurance
operas
crosby
prayed
priory
rory
gujarat
walton
cube
pasha
privilege
lennon
floods
thorne
waterfall
nipple
scouting
approve
minorities
voter
dwight
extensions
assure
ballroom
slap
dripping
privileges
rejoined
confessed
demonstrating
patriotic
yell
investor
pagan
slumped
squares
confront
bert
embarrassment
aston
urging
sweater
starr
yuri
brains
williamson
commuter
mortar
structured
selfish
exports
cds
unfinished
mortgage
destinations
canoe
solitary
buchanan
delays
magistrate
fk
motivation
recruiting
assess
malik
antique
pius
rahman
reich
tub
zhou
smashed
airs
galway
xii
conditioning
honduras
discharged
dexter
lionel
debates
lemon
tiffany
volunteered
dom
dioxide
procession
devi
sic
tremendous
advertisements
colts
transferring
verdict
hanover
decommissioned
utter
relate
pac
racism
beacon
limp
similarity
terra
occurrence
ant
becky
capt
updates
armament
richie
pal
halloween
mayo
cara
serena
fcc
dolls
obligations
violated
lafayette
jakarta
exploitation
infamous
iconic
kitty
moody
reginald
dread
spill
crystals
olivier
modeled
bluff
equilibrium
separating
notices
ordnance
extinction
onset
cosmic
attachment
sammy
expose
privy
anchored
abbott
admits
bending
baritone
emmanuel
policeman
vaughan
winged
climax
dresses
denny
polytechnic
mohamed
burmese
authentic
nikki
genetics
grandparents
homestead
gaza
postponed
metacritic
una
unstable
dissertation
curls
obscure
uncovered
bronx
praying
prehistoric
coke
turret
mutations
nonprofit
pits
monaco
dispatched
podium
uci
fortifications
birthplace
kendall
preacher
rack
goodman
persistent
jaime
recorder
lexington
persecution
jumps
renewal
wagons
crushing
decorations
abundance
wrath
laundry
garde
jeanne
beetles
peasant
splitting
caste
sergei
scripts
rub
satellites
inscribed
verlag
scrapped
gale
packages
chick
potato
slogan
kathleen
arabs
counterparts
reminiscent
choral
rand
retains
bushes
dane
accomplish
courtesy
closes
slaughter
hague
krakow
lawson
tailed
elias
ginger
canopy
betrayal
rebuilding
turf
frowning
allegiance
brigades
kicks
rebuild
polls
alias
nationalism
td
rowan
audition
bowie
recognizes
harp
dillon
horrified
renault
ropes
presumed
rewarded
infrared
wiping
accelerated
illustration
presses
practitioners
badminton
detained
recognizing
relates
misery
reproduction
piercing
potatoes
thornton
esther
manners
hbo
ours
bullshit
ernie
perennial
sensitivity
illuminated
rupert
rfc
nassau
staggered
socialism
appointment
nonsense
prestige
sharma
haul
solidarity
gps
igor
pedestrian
baxter
tenants
wires
medication
unlimited
guiding
impacts
diabetes
sasha
pas
clive
extraction
constraints
sonata
hunted
sixteenth
chu
planting
quote
mayer
pretended
abs
spat
ceramic
curtains
pigs
pitching
latvian
sore
dayton
patrols
slice
playground
shone
stool
apparatus
inadequate
mates
treason
desires
somalia
laurent
mir
leonardo
oracle
grape
obliged
chevrolet
thirteenth
stunning
enthusiastic
accounted
concludes
currents
basil
drought
mai
shove
posting
pilgrimage
humorous
packing
fry
pencil
wines
smells
marilyn
aching
newest
clung
bon
neighbours
sanctioned
mug
drowning
hydraulic
hiring
reminder
lilly
investigators
sour
compulsory
packet
cannes
depressed
heroic
theresa
conway
saturn
marginal
rae
corresponds
royce
pact
jasper
explosives
packaging
aluminium
denotes
rhythmic
spans
assignments
hereditary
outlined
originating
sundays
lad
reissued
greeting
beatrice
pillar
marcos
plots
handbook
alcoholic
judiciary
avant
slides
extract
masculine
blur
homage
trembled
owens
hymn
trey
omega
signaling
socks
accumulated
reacted
attic
theo
lining
angie
distraction
primera
talbot
ti
creativity
billed
deacon
eduardo
identifies
proposition
dizzy
gunner
hogan
ja
jensen
reconstructed
clearance
darius
abe
harlem
plea
dei
circled
notation
fascist
neville
exceeded
upwards
viable
ducks
workforce
racer
limiting
shri
possesses
kerr
moths
devastating
laden
disturbing
locking
gal
fearing
accreditation
flavor
aide
mountainous
melt
motel
texture
servers
soda
herd
erect
puzzled
hum
peggy
examinations
gould
testified
geoff
ren
devised
sacks
denial
posters
grunted
cesar
tutor
ec
gerry
offerings
byrne
falcons
combinations
ct
incoming
pardon
rocking
avengers
flared
mankind
seller
uttar
loch
nadia
stroking
exposing
fertile
ancestral
instituted
noises
prophecy
taxation
eminent
vivid
pol
dart
indirect
multimedia
notebook
upside
displaying
adrenaline
referenced
geometric
progression
blunt
announce
implementing
aggression
liaison
cooler
cares
headache
plantations
gorge
dots
impulse
ashamed
averaging
kathy
obligation
precursor
fowler
symmetry
thee
hears
undergoing
ads
butcher
bowler
cigarettes
subscription
browne
kyoto
donor
damaging
friction
drifting
expeditions
hardened
prostitution
fauna
blankets
claw
tossing
snarled
butterflies
recruits
investigative
coated
healed
communal
hai
xiii
academics
boone
psychologist
lahore
stephens
mba
brendan
foreigners
printer
ached
explode
deed
scratched
dared
cardiac
okinawa
proto
commando
compelled
electrons
replica
thanksgiving
sheila
deliberate
stafford
tidal
representations
hercules
ou
kidnapping
lenses
deficit
samoa
mouths
consuming
computational
maze
granting
smirk
razor
fixture
ideals
inviting
aiden
nominal
issuing
julio
pitt
ramsey
docks
exhaust
bavarian
draped
anterior
mating
ethiopian
explores
noticing
discarded
convenience
hoffman
endowment
beasts
cartridge
mormon
paternal
probe
sleeves
interfere
lump
deadline
jenks
bulldogs
scrap
alternating
justified
reproductive
nam
seize
descending
secretariat
kirby
coupe
grouped
smash
panther
sedan
tapping
lola
cheer
germanic
unfortunate
unrelated
subordinate
suzanne
advertisement
horsepower
discourse
luigi
noun
prevalent
mao
schneider
everett
surround
governorate
kira
westward
misty
rails
sustainability
unused
packs
toast
unwilling
regulate
thy
suffrage
nile
awe
assam
definitions
travelers
affordable
conferred
sells
undefeated
beneficial
torso
basal
repeating
remixes
bahrain
cables
fang
excavated
numbering
statutory
deluxe
forested
ramirez
derbyshire
zeus
slamming
transfers
astronomer
banana
lottery
berg
histories
bamboo
resurrection
posterior
bowls
thou
preserving
tensed
offence
meyrick
callum
ridden
watt
langdon
tying
lowland
snorted
daring
truman
aura
filing
weighing
goa
infections
philanthropist
saunders
eponymous
latitude
perspectives
reviewing
mets
commandant
radial
flashlight
reliability
koch
vowels
amazed
ada
elaine
supper
predator
debated
soviets
cola
compartment
crooked
arbitrary
fourteenth
havana
majors
steelers
clips
profitable
ambush
exited
packers
nude
cracks
fungi
limb
trousers
josie
shelby
tens
frederic
definite
constellation
insult
baton
discs
lingering
conclusions
lent
staging
becker
grandpa
shaky
einstein
obstacles
sk
adverse
elle
mccartney
thor
dismissal
motions
readings
nostrils
treatise
squeezing
prolonged
venezuelan
je
marguerite
beirut
takeover
shareholders
denise
digit
airplay
norse
imaginary
pills
hubert
blaze
vacated
eliminating
vine
mansfield
retrospective
barrow
borne
clutch
bail
forensic
weaving
desktop
citadel
promotions
worrying
dorset
ieee
subdivided
manned
expeditionary
pickup
synod
chuckle
barney
functionality
karachi
litigation
meanings
uc
lick
turbo
anders
execute
curl
oppose
ankles
typhoon
linguistics
compassion
pressures
grazing
perfection
immunity
monopoly
muddy
backgrounds
namibia
francesca
monitors
attracting
stunt
tuition
vegetable
mgm
jen
complexes
forts
cellar
bites
seventeenth
royals
flemish
failures
mast
charities
peruvian
capitals
macmillan
ipswich
outward
frigate
postgraduate
folds
employing
fiery
contingent
nightmares
monumental
nicaragua
lizard
mal
fielding
gig
reject
harding
coastline
beethoven
humphrey
innovations
norris
doris
solicitor
huang
obey
niagara
shelves
aug
bourbon
curry
nightclub
specifications
hilton
centennial
dispersed
worm
neglected
briggs
sm
font
kuala
uneasy
plc
awaiting
pronunciation
eh
optimal
zhu
raped
greens
presided
brenda
worries
venetian
marxist
turnout
refined
braced
sins
grasped
sunderland
nickel
speculated
lowell
cyrillic
communism
fundraising
resembling
colonists
mutant
freddie
usc
gratitude
mural
chemist
wi
reminds
steals
tess
pietro
promoter
ri
microphone
honoured
rai
sant
feather
burlington
kurdish
terrorists
deborah
hazard
irritated
desperation
veil
clarity
jewels
xv
berkshire
unfair
mysteries
orchid
winced
exhaustion
renovations
stranded
obe
infinity
adapt
redevelopment
thanked
registry
olga
domingo
noir
tudor
ole
commenting
behaviors
crisp
pauline
probable
stirling
wigan
paralympics
panting
surpassed
luca
barred
pony
famed
cassandra
waiter
carolyn
exported
andres
destructive
deeds
jonah
castles
vacancy
suv
orchard
yep
famine
belarusian
sprang
skinny
administrators
rotterdam
zambia
zhao
boiler
discoveries
lucius
disappoint
outreach
spoon
qualifications
unanimously
enjoys
regency
stade
realism
veterinary
rodgers
dump
alain
chestnut
castile
censorship
rumble
gibbs
communion
reggae
inactivated
logs
loads
homosexual
ale
informs
phrases
plaster
linebacker
ambrose
kaiser
fascinated
limerick
recruitment
forge
mastered
leinster
rooted
threaten
borneo
suggestions
scholarships
propeller
documentaries
patronage
coats
constructing
invest
neurons
comet
entirety
shouts
identities
annoying
unchanged
wary
neat
oversight
phillies
replay
constance
incarnation
humble
skies
minus
smithsonian
guerrilla
jar
cadets
surplus
audit
cracking
joanna
louisa
pacing
diner
nwa
imprint
australians
tong
unprecedented
bunker
naive
specialists
ark
nichols
railing
leaked
pedal
shrub
longing
roofs
captains
neural
tuned
emission
medina
frantic
codex
definitive
sid
abolition
intensified
stocks
enrique
sustain
genoa
oxide
clues
cha
tributaries
fragment
venom
muffled
vain
sire
laos
hastily
snapping
surfaced
sentiment
motive
contests
approximate
mesa
luckily
dinosaur
exchanges
propelled
accord
bourne
relieve
tow
masks
offended
cynthia
rains
bartender
zinc
reviewers
lois
legged
arrogant
rafe
rosie
comprise
handicap
blockade
inlet
lagoon
copied
drilling
shelley
petals
mandarin
obsolete
onward
arguably
productivity
cindy
praising
seldom
busch
discusses
raleigh
shortage
ranged
stanton
encouragement
conceded
overs
temporal
cbe
woo
certainty
pumps
stalked
lizzie
periodic
thieves
weaker
gases
shoving
chooses
wc
prompting
weights
robust
flanked
sticky
hu
tuberculosis
christchurch
resembled
wallet
reese
inappropriate
pictured
distract
fixing
fiddle
giggled
burger
heirs
hairy
mechanic
torque
apache
obsessed
cheng
logging
extracted
meaningful
numb
gloucestershire
reminding
unite
breeds
diminished
clown
glove
archibald
focal
freelance
sliced
depiction
organism
switches
sights
stray
crawling
lever
leningrad
interpretations
loops
anytime
reel
alicia
delighted
inhaled
xiv
suitcase
bernie
vega
licenses
northampton
exclusion
induction
monasteries
racecourse
homosexuality
dimitri
michele
alternatives
ions
commentators
objected
pork
hospitality
fencing
stephan
warships
peripheral
wit
drunken
wrinkled
quentin
spends
departing
chung
numerical
spokesperson
johannesburg
caliber
killers
assumes
demographic
abigail
bloc
mounting
bentley
slightest
xu
recipients
merlin
seniors
prisons
blinking
hindwings
flickered
kappa
strengthening
appealing
brewing
gypsy
mali
lashes
hulk
unpleasant
harassment
bio
treaties
predict
instrumentation
pulp
troupe
boiling
mantle
ins
dividing
handles
verbs
coconut
senegal
thorough
gum
momentarily
cocaine
panicked
destined
teatro
denying
weary
captained
mans
wakefield
bollywood
cyril
amendments
consultation
stud
reflections
tex
mosaic
distribute
paddy
seeming
piers
winger
kang
sentinel
mccoy
covenant
verge
fireworks
suppress
thrilled
dominate
swansea
reconciliation
stiffened
cue
dorian
damascus
amor
ida
foremost
porsche
unseen
dir
stony
lexi
melodies
angular
integer
podcast
ants
inherent
jaws
justify
persona
josephine
customary
flashes
gala
cyrus
glaring
backyard
ariel
physiology
greenland
html
stir
avon
atletico
finch
methodology
ked
mas
catholicism
townsend
branding
quincy
fits
containers
ashore
aragon
forearm
poisoning
adopting
conquer
grinding
amnesty
keller
finances
evaluate
forged
lankan
instincts
guam
bosnian
photographed
workplace
desirable
protector
allocation
encourages
willy
bodyguard
electro
brighter
bihar
lasts
opener
amphibious
sal
verde
arte
captivity
vocabulary
yields
desmond
pioneered
strap
campaigned
railroads
emblem
stormed
marijuana
northumberland
bowen
landmarks
beaumont
danube
attorneys
th
ge
flyers
critique
villains
cass
mutation
acc
colombo
mckay
motif
sampling
concluding
syndicate
neon
stables
ds
warnings
clint
mourning
wilkinson
merrill
leopard
evenings
exhaled
emil
sonia
ezra
discrete
stove
farrell
fifteenth
prescribed
superhero
worms
helm
wren
expo
hq
unfamiliar
antony
prevents
acceleration
mari
calculations
cheaper
ign
clifton
irvine
davenport
mozambique
pierced
wonders
crusade
ware
enzymes
reasonably
mls
mater
ambition
bunny
eliot
kernel
asphalt
headmaster
torah
aden
lush
pins
waived
joao
substrate
enforce
alvarez
selections
epidemic
tempted
bremen
ensured
waterfront
forrest
manny
malone
kramer
reigning
cookies
simpler
absorption
engraved
evaluated
haze
comforting
crossover
thorn
suppression
fatigue
cutter
wurttemberg
enforced
hovering
proprietary
gb
samurai
syllable
ascent
lacey
tick
lars
tractor
merchandise
rep
bouncing
defendants
huntington
standardized
assassinated
nu
predecessors
rainy
liar
assurance
lyrical
flattened
ios
parameter
undercover
bordeaux
punish
ridges
markers
exodus
inactive
hesitate
debbie
nyc
pledge
savoy
nagar
offset
organist
hesse
marin
converting
diagram
propulsion
pu
validity
reverted
supportive
ministries
clans
responds
proclamation
ein
pleading
patriot
sf
birch
islanders
strauss
hates
brandenburg
concession
rd
killings
textbook
antiquity
cinematography
wharf
embarrassing
setup
creed
farmland
inequality
centred
signatures
fallon
ceylon
gazing
directive
laurie
allah
excavation
threads
icc
utilize
determines
respiratory
thoughtful
receptions
merging
chandra
seine
builders
builds
diagnostic
dev
visibility
goddamn
analyses
dhaka
cho
proves
chancel
concurrent
canadians
pumped
restoring
turtles
jaguar
sinister
spinal
traction
declan
vows
glowed
capitalism
swirling
install
universidad
soloist
coincidence
beginnings
nissan
dip
resorts
caucasus
combustion
infectious
pigeon
serpent
conclude
masked
salad
jew
surreal
toni
harmonica
fishermen
intending
klaus
titan
wembley
taiwanese
ransom
incorrect
hussein
eyelids
jp
cooke
dramas
utilities
eisenhower
granada
lana
openings
concord
bethany
connie
morality
sega
earnings
wii
communes
coma
composing
softened
severed
grapes
nguyen
analyzed
warlord
hubbard
behave
slovenian
hailed
filmmakers
trance
caldwell
skye
unrest
coward
likelihood
bern
sci
taliban
honolulu
propose
browser
imagining
cobra
contributes
dukes
conan
violinist
accessories
gradual
quotes
sioux
undertake
intercepted
sparkling
compressed
fungus
tombs
haley
imposing
rests
degradation
lincolnshire
retailers
wetlands
tulsa
distributor
dungeon
nun
greenhouse
convey
atlantis
aft
exits
oman
dresser
lyons
joking
eddy
judgement
omitted
digits
juniors
cents
stricken
une
wizards
weir
breton
nan
technician
fibers
liking
royalty
persia
terribly
magician
vance
cafeteria
booker
camille
warmer
consume
cavern
gaps
compass
contemporaries
foyer
soothing
graveyard
maj
plunged
blush
cascade
demonstrates
ordinance
boyle
rockefeller
shaken
banjo
izzy
vines
alterations
chromosome
dwellings
feudal
mole
catalonia
relics
tenant
mandated
fridge
hats
honesty
raul
heap
cruisers
accusing
enlightenment
infants
wherein
chatham
contractors
zen
affinity
hc
osborne
piston
traps
maturity
lagos
peering
attendant
dealers
protocols
subset
prospects
biographical
artery
insignia
nuns
endured
recommend
schwartz
serbs
berger
cromwell
crossroads
enduring
clasped
grounded
marseille
twitched
abel
choke
https
catalyst
moldova
italians
disastrous
wee
wwf
nope
expresses
thumbs
coca
cheating
skipped
sensory
heidelberg
spies
satan
dangers
semifinal
bohemia
whitish
confusing
shipbuilding
relies
surgeons
landings
ravi
baku
moor
suffix
alejandro
litre
upheld
rajasthan
coaster
insists
posture
scenarios
etienne
favoured
transgender
elephants
poked
greenwood
defences
fulfilled
militant
somali
chalk
potent
migrants
wink
assistants
nos
restriction
activism
niger
colon
shaun
daphne
swam
congregations
reprise
considerations
magnet
playable
xvi
overthrow
tobias
knob
chavez
coding
propped
katrina
orient
newcomer
temperate
farmhouse
interrogation
committing
forthcoming
strawberry
joaquin
macau
ponds
shocking
siberia
chant
contributors
sped
absorb
hail
spared
barbados
karate
opus
originates
saul
evergreen
leaped
correlation
exaggerated
weekday
unification
bump
tracing
brig
afb
pathways
utilizing
mod
mb
disturbance
kneeling
pune
decreasing
manipulation
miriam
academia
ecosystem
occupational
rbi
rift
rotary
stacked
incorporation
awakening
generators
guerrero
racist
cyber
derivatives
culminated
allie
annals
panzer
sainte
wikipedia
pops
zu
austro
algerian
nicholson
mornings
educate
tastes
thrill
dartmouth
db
regan
differing
concentrating
choreography
divinity
pledged
alexandre
routing
gregor
madeline
apocalypse
gunfire
culminating
elves
fined
liang
lam
programmed
tar
guessing
transparency
gabrielle
cancellation
flexibility
accession
shea
stronghold
nets
specializes
abused
hasan
sgt
ling
exceeding
admiration
supermarket
photographers
specialised
tilt
resonance
hmm
perfume
sami
threatens
garland
botany
guarding
boiled
greet
puppy
russo
supplier
wilmington
vibrant
vijay
paralympic
grumbled
paige
faa
licking
margins
hurricanes
fest
grenade
ripping
counseling
weigh
needles
wiltshire
edison
fulton
tramway
redesigned
staffordshire
cache
gasping
watkins
sleepy
candidacy
monkeys
timeline
throbbing
berth
uzbekistan
vanderbilt
bothering
overturned
ballots
gem
sunglasses
subscribers
hooker
compelling
ang
saloon
stab
carla
terrifying
rom
coil
satisfying
vendors
mackay
deities
overlooked
ambient
bahamas
felipe
olympia
whirled
botanist
advertised
tugging
disciples
morales
unionist
rites
foley
morse
motives
creepy
soo
bargain
frightening
turnpike
tory
reorganization
depict
biographer
unopposed
manifesto
institut
emile
accidental
kapoor
kilkenny
cortex
romanesque
jain
shan
cannons
petrol
echoing
amalgamated
cautious
proposes
sanctions
trenton
flotilla
aus
contempt
tor
canary
cote
theirs
conceptual
deleted
fascinating
paso
blazing
elf
honourable
hutchinson
surveyor
tee
amidst
wooded
reissue
intro
cobb
shelters
newsletter
hanson
brace
encoding
confiscated
dem
caravan
marino
scroll
melodic
cows
imam
northward
searches
biodiversity
cora
roaring
connell
theologian
halo
compose
pathetic
unmarried
dynamo
az
calculation
toulouse
deserves
humour
nr
tam
undergone
martyr
pamela
myths
whore
counselor
hicks
heavens
battleship
electromagnetic
stellar
establishments
presley
hopped
temptation
wills
nas
nhs
seminars
adaptations
gong
asher
lex
indicator
sikh
tobago
cites
goin
satirical
characterised
correspond
bubbles
lure
participates
eruption
skate
therapeutic
canals
wholesale
defaulted
sac
petit
virgil
leak
ravens
portraying
ghetto
creators
dams
portray
vicente
fae
namesake
bounty
joachim
aforementioned
axle
snout
depended
dismantled
reuben
gallagher
earnest
inflicted
objections
asa
gritted
jericho
flick
underside
ceramics
undead
substituted
eastward
wheeled
chimney
guinness
cb
siding
traitor
baptiste
disguised
inauguration
tipperary
choreographer
perched
warmed
stationary
eco
bacterial
flores
phosphate
attacker
invaders
alvin
intersects
immigrated
businessmen
cornelius
valves
narrated
pill
sober
ul
nationale
monastic
applicants
scenery
motifs
constitutes
cpu
jurisdictions
sd
tuning
irritation
woven
fertility
gao
antagonist
impatient
glacial
hides
boarded
denominations
interception
cookie
nicola
algebraic
marquess
bahn
parole
buyers
bait
turbines
paperwork
bestowed
natasha
renee
oceans
purchases
vaccine
fixtures
playhouse
integrate
jai
oswald
intellectuals
booked
nests
mortimer
obsession
sept
scrutiny
simultaneous
squinted
collects
oven
shankar
penned
remarkably
slips
luggage
spectral
collaborations
louie
consolidation
hoover
blackpool
harness
ignition
vest
tails
belmont
mongol
skinner
mage
derry
stevie
transitional
redskins
drying
prep
prospective
annoyance
oversee
fills
announces
fda
scowled
respects
prasad
mystic
tucson
revue
springer
bankrupt
aristotle
salvatore
habsburg
dal
natal
nut
pod
chewing
darts
moroccan
walkover
rosario
lenin
punjabi
grossed
scattering
wired
invasive
hui
polynomial
corridors
wakes
gina
portrays
arid
retreating
erich
irwin
sniper
linen
lindsey
maneuver
butch
shutting
socio
bounce
commemorative
postseason
jeremiah
pines
mystical
beads
bp
abbas
furnace
bidding
consulted
assaulted
empirical
rubble
enclosure
sob
cancel
polly
yielded
curly
prediction
battered
vhs
jacqueline
render
sails
barked
detailing
grayson
riga
sloane
raging
herbs
bravo
alloy
giggle
imminent
suffers
assumptions
waltz
accomplishments
bathing
remixed
deception
prefix
deepest
balkan
frogs
slab
philosophers
peterborough
grains
imports
dickinson
rwanda
dirk
lan
tablets
clone
caretaker
hostilities
mclean
regimental
treasures
norms
impose
tsar
tango
diplomacy
complain
recognise
celestial
pulitzer
bing
libretto
adele
splash
expectation
lds
confronts
spontaneous
harmful
wedge
entrepreneurs
buyer
bilingual
rugged
conner
circulated
uae
eaton
lingered
lockheed
vishnu
reelection
alonso
joints
yankee
headline
cooperate
heinz
laureate
invading
echoes
scandinavian
hugging
vitamin
salute
micah
hind
trader
radioactive
militants
poisoned
ratified
remark
campeonato
deprived
wander
prop
outlook
chiang
darcy
mandolin
spice
statesman
babylon
walled
forgetting
afro
giorgio
buffer
planetary
overlap
terminals
kinda
centenary
arising
manipulate
elm
ke
ak
chrysler
mapped
moose
pomeranian
quad
macarthur
assemblies
shoreline
recalls
stratford
noticeable
imp
accustomed
supplying
tents
disgusted
vogue
sipped
filters
khz
reno
selecting
luftwaffe
mcmahon
tyne
masterpiece
carriages
collided
dunes
exercised
flare
remembers
muzzle
heck
burgess
lunged
middleton
boycott
bilateral
hazardous
lumpur
multiplayer
spotlight
jackets
goldman
liege
porcelain
rag
waterford
benz
attracts
hopeful
battling
ottomans
kensington
baked
hymns
cheyenne
lattice
levine
borrow
polymer
clashes
michaels
monitored
commitments
denounced
cavity
hobby
akin
futures
intricate
cornish
patty
dolphin
barlow
yellowish
maddie
apologized
luton
plagued
nana
sway
fanny
psi
suspicions
hanged
initiate
charlton
nak
competent
analytical
annex
wardrobe
reservations
sect
fairfax
hedge
piled
buckingham
uneven
bauer
simplicity
snyder
interpret
accountability
donors
byrd
continents
disciple
hr
jamaican
ping
nominees
mongolian
diver
attackers
ideological
pillows
miracles
apartheid
revolver
sulfur
clinics
moran
ile
katy
rhetoric
chronology
recycling
elongated
mughal
pascal
profiles
vibration
databases
domination
matthias
digest
rehearsal
polling
weiss
initiation
reeves
clinging
flourished
impress
ngo
buckley
symposium
rhythms
weed
emphasize
transforming
accountant
analyze
flicker
foil
priesthood
voluntarily
decreases
slater
sv
charting
mcgill
moreno
besieged
zur
robes
admitting
api
deported
turmoil
peyton
earthquakes
nationalists
beau
clair
brethren
interrupt
welch
curated
galerie
requesting
impending
steward
viper
complaining
brandy
foam
nl
alessandro
punches
laced
explanations
attribute
clit
reggie
discomfort
smoothed
whales
adler
countered
duffy
disciplinary
widening
recipe
reliance
conducts
goats
gradient
preaching
matilda
quasi
striped
meridian
cannabis
cordoba
certificates
graffiti
hangs
pilgrims
repeats
revive
urine
etat
fueled
belts
fuzzy
susceptible
mauritius
salle
sincere
beers
hooks
arbitration
entrusted
advise
sniffed
seminar
junk
donnell
processors
principality
strapped
celia
mendoza
everton
fortunes
prejudice
starving
reassigned
steamer
tuck
foreman
dans
envisioned
slit
baseman
liberia
rosemary
electrified
potassium
stride
contexts
sperm
slade
mariners
influx
bianca
subcommittee
spilling
icao
estuary
delivers
iphone
isa
mira
bohemian
dessert
welcoming
slowing
musee
ascension
russ
waits
africans
exploit
gov
eccentric
crab
peck
entrances
formidable
marketplace
groom
bolted
metabolism
patton
robbins
courier
payload
endure
andes
refrigerator
ornate
illegitimate
masonry
strasbourg
bikes
adobe
apples
quintet
niche
bakery
corpses
energetic
centimeters
centro
fuscous
cretaceous
rancho
andrei
telecom
tottenham
oasis
ordination
vulnerability
presiding
corey
cp
penguins
sims
malawi
piss
countdown
detective
psychiatrist
psychedelic
dinosaurs
blouse
choi
vowed
scrub
blanche
bruins
dusseldorf
unwanted
dominique
elevations
headlights
om
laguna
ignorance
shrewsbury
ajax
breuning
che
confederacy
greco
overhaul
paz
skirts
cruelty
jagged
phoebe
shifter
hovered
viruses
mandy
landlord
squirrel
dashed
ornamental
gag
wally
grange
literal
spurs
undisclosed
proceeding
yin
billie
orphan
spanned
humidity
indy
weighted
presentations
explosions
lucian
vaughn
hindus
psycho
daytona
protects
rematch
sly
tandem
rebranded
impaired
hee
metropolis
peach
godfrey
diaspora
ethnicity
prosperous
gleaming
dar
grossing
playback
stripe
pistols
births
labelled
rudy
alba
aquarium
hostility
shudder
sumatra
hardest
lakers
consonant
creeping
demos
homicide
capsule
zeke
liberties
expulsion
pueblo
trait
transporting
depart
gregg
mold
ledge
hangar
oldham
playboy
termination
analysts
gmbh
romero
insist
cradle
filthy
slash
shootout
deposed
bordering
isis
microwave
tumbled
sheltered
cathy
werewolves
messy
andersen
convex
clapped
clinched
satire
wasting
edo
vc
rufus
mont
poznan
restructuring
transverse
azerbaijani
slovene
gestures
roommate
choking
shear
vanguard
oblivious
baptism
coliseum
salvage
societe
cory
locke
relocation
relying
versailles
ahl
swelling
cheerful
gin
sarajevo
obstacle
diverted
messed
thoroughbred
fluttered
utrecht
chewed
acquaintance
assassins
dispatch
mirza
nike
salzburg
swell
yen
idle
ligue
samson
playful
spawned
tease
burgundy
stirring
skeptical
interceptions
marathi
bedrooms
aroused
pinch
preferences
tattoos
buster
projecting
rust
kitten
priorities
addison
pseudo
dusk
icons
sermon
bt
ju
truce
rink
defects
psychiatry
offences
calculate
glucose
francaise
richest
warwickshire
carly
purity
redemption
lending
muse
bruises
cerebral
aero
carving
preface
terminology
invade
monty
anarchist
blurred
rossi
treats
guts
shu
foothills
ballads
undertaking
premise
cecilia
affiliates
blasted
conditional
wilder
minors
drone
rudolph
buffy
swallowing
horton
attested
rutherford
howell
primetime
livery
penal
minimize
hydro
wrecked
wrought
palazzo
cans
vernacular
friedman
nobleman
shale
walnut
danielle
sears
chords
lend
flipping
streamed
por
dracula
gallons
sacrifices
gamble
orphanage
mckenzie
boxers
daly
exploited
slated
circling
hillary
pinched
goldberg
provost
campaigning
lim
piles
ironically
jong
mohan
successors
usaf
autobiographical
haute
preserves
acquitted
comparisons
hydroelectric
gangs
cypriot
torpedoes
rushes
chrome
derive
bumps
instability
fiat
pets
silas
dye
reckless
settler
info
heats
canonical
maltese
fins
mushroom
stacy
aspen
avid
vickers
gaston
hillside
statutes
wilde
gail
kung
sabine
comfortably
motorcycles
pneumonia
fetch
axel
parallels
mclaren
spouse
compton
interdisciplinary
miner
clamped
separates
versa
scarborough
labrador
rutgers
hurdles
como
burt
divers
wichita
cade
coincided
bruised
mla
vineyard
notch
mentioning
jase
hearted
kits
doe
pomerania
ronan
seizure
pavel
problematic
domenico
catering
penelope
dependence
parental
emilio
ministerial
atkinson
clarkson
chargers
colby
grill
peeked
arises
summon
fools
faculties
qaeda
garner
refurbished
geelong
disasters
nudged
bs
shareholder
lori
algae
reinstated
rot
invites
inclusive
diocesan
til
denomination
benton
floral
registers
absurd
brunei
guangzhou
hitter
retaliation
blanc
nh
consistency
contamination
dire
palermo
broadcasters
diaries
inspire
vols
brewer
tightening
ky
mixtape
hormone
stokes
pg
sanitation
intercontinental
apps
cylinders
economies
favourable
unison
croix
gertrude
odyssey
vanity
dangling
upgrades
dice
middleweight
practitioner
henrik
parlor
orion
angered
lac
python
blurted
sensual
intends
swings
angled
husky
attain
peerage
precinct
textiles
cheltenham
shuffled
dai
confess
tasting
bhutan
tyrone
segregation
abrupt
ruiz
smirked
blackwell
confidential
browning
amounted
vase
scarce
fabulous
raided
staple
guyana
unemployed
glider
shay
carmine
troll
intervene
squash
superstar
cylindrical
len
roadway
researched
handy
meta
lao
declares
willem
shrubs
napoleonic
realms
skater
qi
volkswagen
tad
hara
archaeologist
eerie
wiley
titus
organizers
cfl
crusaders
lama
usb
vent
enraged
thankful
occupants
maximilian
possessing
textbooks
collaborator
quaker
avalanche
mono
silky
straits
isaiah
mustang
surged
resolutions
potomac
descend
cl
kilograms
plato
strains
saturdays
bernstein
holstein
ponytail
belize
heroine
perpetual
charcoal
piedmont
glee
negotiating
backdrop
prologue
pasadena
climbs
ramos
sunni
anand
deficiency
hertfordshire
stout
aperture
orioles
doncaster
intrigued
bombed
coating
otis
cocktail
amir
arousal
sar
dixie
pots
whereabouts
drains
bullying
cottages
scripture
coherent
fore
poe
appetite
sampled
derrick
rotor
jays
peacock
installment
advisors
rodeo
scotch
ensued
rodrigo
dictatorship
martyrs
twenties
towed
incidence
marta
rainforest
sai
scaled
oceanic
qualifiers
symphonic
mcbride
dislike
generalized
aubrey
colonization
disliked
lublin
salesman
spherical
whatsoever
sweating
avalon
contention
punt
severity
alderman
atari
scarf
seville
vertices
annexation
fairfield
fascination
inspiring
launches
palatinate
regretted
feral
elk
nap
olsen
reddy
yong
garment
transports
feng
gracie
outrage
viceroy
insides
breakup
grady
organizer
softer
grimaced
murals
galicia
arranging
vectors
bas
sloan
bitten
ara
fender
nausea
bumped
kris
banquet
comrades
detector
persisted
adjustment
endowed
cinemas
sellers
peek
epa
neglect
simpsons
talon
mausoleum
runaway
hangul
lookout
rewards
coughed
acquainted
chloride
quicker
accordion
neolithic
artemis
coefficient
lenny
pandora
tx
ecstasy
litter
segunda
chairperson
gemma
hiss
rumor
vow
nasal
antioch
compensate
transformer
judo
morrow
penis
posthumous
philips
bandits
husbands
denote
flaming
langley
yorker
walters
gubernatorial
fatty
samsung
leroy
outlaw
unpublished
poole
jakob
crete
distorted
superiority
intercept
crust
mig
claus
crashes
positioning
stallion
frontal
armistice
elton
aj
camel
commemorated
malaria
woodward
calf
cigar
penetrate
willard
illustrate
amusing
convergence
noteworthy
journeys
realise
manfred
hearings
fiance
educators
provoked
adjusting
modular
stockton
paterson
vlad
rejects
electors
selena
maureen
uber
swirled
proportions
nanny
pawn
naturalist
parma
apostles
awoke
ethel
wen
monsoon
overview
mccain
rendition
risky
adorned
equestrian
germain
nj
conspicuous
confirming
shivering
milestone
rumours
flinched
bounds
smacked
token
lectured
automobiles
impacted
nouns
nero
ismail
prostitute
trams
bridget
sud
stimulus
impressions
reins
revolves
giro
honeymoon
criterion
libyan
prefers
preview
sucks
accusation
bursts
metaphor
diffusion
tolerate
faye
betting
cinematographer
liturgical
specials
humboldt
flux
rattled
archaeologists
odor
authorised
marshes
discretion
alarmed
archaic
inverse
explorers
drummond
tsunami
woodlands
booklet
insanity
owning
insert
crafted
calculus
receivers
stung
prevailing
travellers
eyeing
lila
graphs
julien
morale
adaptive
therapist
erica
cw
libertarian
bowman
pitches
vita
crook
caledonia
mutiny
automation
flock
ironic
pathology
remarried
joker
withstand
energies
shropshire
hostages
madeleine
conflicting
mateo
recipes
euros
ol
mercenaries
nico
albuquerque
augmented
mythical
bel
freud
cough
freddy
lillian
nuremberg
calder
bonn
outdoors
paste
suns
urgency
vin
restraint
tyson
barrage
bethlehem
kahn
mounts
nippon
barony
happier
ryu
makeshift
sheldon
blushed
castillo
barking
listener
taped
bethel
fluent
headlines
pornography
rum
disclosure
sighing
mace
doubling
gunther
rt
interventions
physiological
forwards
emerges
compliment
rib
recession
visibly
barge
faults
connector
exquisite
prefect
patio
elevators
brandt
italics
pena
wasp
satin
ea
botswana
graceful
respectable
franciscan
generates
alfredo
disgusting
sherwood
warns
cod
promo
cheryl
sino
twitch
brownish
thom
ortiz
carmel
reinforce
anastasia
downhill
vertex
contaminated
remembrance
harmonic
homework
fiancee
gears
olds
angelica
loft
ramsay
quiz
colliery
sevens
autism
walkway
ruben
abnormal
ounce
khmer
zachary
bedside
morphology
punching
sparrow
convinces
hewitt
queer
remastered
rods
mabel
solemn
notified
lyricist
symmetric
encore
passports
wildcats
baja
bleed
commodity
mounds
glossy
orchestras
damian
prelude
ambitions
awhile
asserts
imply
modelling
remedy
windshield
dani
xiao
audible
powerplant
invalid
elemental
acquisitions
immaculate
libby
plata
smuggling
ventilation
denoted
minh
differed
dion
kelley
lore
mocking
sabbath
spikes
hygiene
drown
runoff
stylized
tally
liberated
aux
interpreter
righteous
aba
siren
reaper
pearce
millie
gaius
captures
dorm
claudio
benches
knighted
discount
fumble
oxidation
routed
novak
perpendicular
spoiled
fracture
splits
pads
topology
axes
fortunate
offenders
protestants
esteem
broadband
convened
hound
prototypes
isil
facilitated
keel
sahara
awaited
bubba
orb
prosecutors
hem
relaxing
remnant
romney
sorted
slalom
stefano
ulrich
exemption
folder
pauses
foliage
hitchcock
epithet
criticisms
ballistic
brody
hinduism
chaotic
youths
equals
pts
thicker
analogous
capitalist
improvised
overseeing
sinatra
ascended
beverage
straightforward
curran
bois
induce
surveying
emperors
sax
unpopular
cartoonist
fused
unto
localities
darlington
slain
academie
lobbying
sediment
puzzles
defiance
dickens
manifest
tongues
alumnus
arbor
coincide
appalachian
mustafa
examiner
cabaret
traumatic
yves
bracelet
draining
heroin
magnum
baths
odessa
consonants
mitsubishi
kellan
vaudeville
joked
null
straps
probation
ceded
interfaces
blinding
viet
rothschild
museo
huddersfield
tactic
brackets
dazed
reg
glazed
fearful
manifold
benefited
irony
stumbling
balkans
mei
wraps
injected
gu
syed
bray
takeoff
poppy
timor
cardboard
astronaut
purdue
weeping
southbound
cursing
stalls
diagonal
lamar
bryce
comte
weekdays
harrington
lays
grouping
affirmed
halle
modernist
hodges
smelling
aristocratic
baptized
dismiss
justification
oilers
coupling
qin
snack
healer
gardener
layla
battled
formulated
stephenson
gravitational
granny
coordinating
suites
monarchs
sep
blended
apr
barrister
deposition
fia
mina
policemen
paranoid
churchyard
covert
crumpled
creep
tr
transmit
conceal
barr
understands
readiness
spire
startling
unlock
vida
bowled
slots
spaced
trusting
admire
rig
slack
mv
casualty
classmates
amherst
furnished
evolve
foundry
menace
mead
flu
wesleyan
monterey
webber
wil
bartholomew
justices
restrained
amenities
mediated
sewage
trenches
ml
mainz
caine
bonding
converts
spheres
superseded
marianne
crypt
sweaty
ensign
historia
spruce
forks
yukon
pamphlet
ames
karma
bryn
negotiation
sighs
incapable
actresses
taft
luce
prevailed
envoy
testify
investing
sculpted
instructors
provence
kali
cullen
horseback
goodwin
gaa
norte
modify
wavelength
abd
skinned
sprinter
forecast
scheduling
marries
squared
tentative
boer
bolts
swap
fisherman
assyrian
guthrie
martins
murdoch
tanya
dolly
lacy
med
syn
decks
fashionable
millionaire
surfing
heaved
tammy
consulate
attendees
fuse
saxophonist
backseat
malaya
scowl
tau
sighted
steaming
ching
bless
conserved
jurassic
stacey
unix
zion
chunk
rigorous
blaine
peabody
slayer
dismay
brewers
nz
det
glover
postwar
int
penetration
sylvester
imitation
airlift
heiress
knoxville
viva
macon
janice
marius
belongings
leicestershire
blanco
inverted
preseason
sanity
sobbing
collingwood
regeneration
flickering
shortest
feminism
sherlock
cabinets
fumbled
northbound
precedent
snaps
researching
guillaume
insights
manipulated
vapor
neighbour
sap
gangster
frey
stalking
callie
barnett
tendencies
audi
doomed
assessing
slung
panchayat
ambiguous
bartlett
distributing
violating
wolverhampton
swami
histoire
liable
pounder
groin
hussain
larsen
popping
surprises
vie
curt
mute
relocate
musicals
authorization
richter
immortality
tna
bombings
deteriorated
yiddish
robbed
colchester
cs
pmid
ao
verified
balancing
apostle
swayed
recognizable
oxfordshire
retention
nottinghamshire
contender
judd
invitational
shrimp
uhf
cleaner
longitudinal
tanker
acronym
broker
koppen
sundance
suppliers
clipped
fuels
petite
landslide
helene
diversion
populous
landowners
auspices
melville
quantitative
ferries
nicky
doo
haunting
roche
carver
downed
unavailable
approximation
hiroshima
garfield
valle
keyboardist
traveler
congestion
calculating
subsidiaries
serb
modernization
fairies
deepened
ville
averages
inflammatory
tonga
squads
gigantic
serum
enjoyment
retailer
verona
cis
magna
technicians
arithmetic
levin
amtrak
chow
sienna
backstage
entrepreneurship
learnt
tao
worcestershire
formulation
baggage
hesitant
bali
sabotage
barren
enhancing
murmur
pl
putnam
syntax
aces
medicines
resentment
bandwidth
grins
chili
guido
framing
implying
gareth
lissa
genevieve
pertaining
admissions
geo
thorpe
proliferation
sato
bela
analyzing
parting
awakened
huddled
secrecy
hush
gentry
dungeons
coasts
sacrificed
landowner
prevalence
programmer
adolescent
disrupted
seaside
gee
trusts
vamp
georgie
schedules
sindh
etched
hm
sparse
bey
beaux
scratching
gliding
unidentified
collaborating
gems
jesuits
oro
accumulation
shaping
mbe
anal
enthusiasts
newscast
janata
dewey
parkinson
ankara
biennial
towering
dd
inconsistent
thriving
terminate
cabins
eats
advocating
donkey
marley
muster
phyllis
leiden
grassland
glittering
iucn
loneliness
memorandum
armenians
popularized
rhodesia
lame
sans
bikini
header
orbits
sharif
spines
biotechnology
strolled
naughty
yates
fremantle
milo
abducted
removes
humming
wonderland
hume
pivotal
armand
grams
believers
elector
rte
apron
bis
scraped
endorsement
initials
eps
dotted
hints
buzzing
emigration
nearer
indicators
coarse
neutron
protectorate
directional
exploits
pains
loire
proponents
guggenheim
rabbits
ritchie
hectare
inputs
hutton
verify
boilers
longitude
skeletal
yer
emilia
citrus
compromised
pokemon
prescription
paragraph
eduard
cadillac
attire
categorized
kenyan
weddings
charley
entertain
monmouth
nutrients
davey
mesh
incentive
practised
ecosystems
kemp
subdued
overheard
bodily
maxim
apprenticeship
ursula
lodged
rug
silesian
unconstitutional
patel
inspected
coyote
unbeaten
disruption
convict
parcel
collier
implicated
mallory
susannah
winkler
shia
phelps
sediments
graphical
robotic
adulthood
mart
smoked
kathryn
clarified
divides
convictions
oppression
pausing
burying
federico
mathias
eileen
kite
hunched
disadvantage
liza
kinetic
greedy
paradox
yokohama
dowager
trunks
ventured
gupta
vilnius
olaf
crimean
hopper
arturo
mouthed
arrondissement
rubin
simulcast
oceania
busiest
navigator
cary
fife
rowe
rowland
posing
insurgents
shafts
lawsuits
activate
conor
inward
garlic
eclectic
furrowed
vargas
meteorological
rendezvous
culinary
commencement
quota
mommy
salaries
overlapping
mule
sums
wentworth
mainline
subgroup
hack
plaintiff
verdi
bulb
differentiation
engagements
multinational
supplemented
bertrand
caller
regis
blossom
propagation
kilometer
viaduct
vineyards
beckett
optimization
golfer
songwriters
seminal
semitic
thud
volatile
evolving
ridley
trivial
distributions
scandinavia
jiang
wrestled
insistence
emphasizes
napkin
adjunct
rhyme
surrounds
tremble
smoky
oils
medicinal
padded
steer
wilkes
concessions
hue
blinded
landon
yahoo
hendrix
commemorating
dex
specify
chicks
intercity
morley
highlighting
pang
oblique
stalled
flirting
newborn
bishopric
shaved
currie
dharma
spartan
favorites
smug
novella
sirens
abusive
creations
espana
paradigm
semiconductor
sheen
nrl
renew
adjutant
marches
norma
ineffective
weimar
grunt
lordship
plotting
expenditure
infringement
lbs
refrain
av
mimi
postmaster
ras
motorsports
tito
subjective
bully
stew
prescott
bids
styling
paranormal
reeve
sneaking
exploding
katz
akbar
migrant
syllables
destroys
replaces
applause
pest
articulated
bertie
courtroom
crowley
aesthetics
cummings
tehsil
hormones
titanic
stadion
jaenelle
auguste
ciudad
mysore
partisans
lucan
philipp
debating
henley
interiors
homecoming
beyonce
usher
henrietta
prepares
weeds
ely
plucked
luxurious
artifact
password
pasture
juno
maddy
minsk
assessments
martian
royalist
examines
nino
parry
scooped
relativity
congregational
noisy
traverse
strikeouts
nickelodeon
obituary
transylvania
binds
depictions
polk
trolley
breeders
hokkaido
strengths
stacks
bonaparte
connectivity
neared
prostitutes
stamped
anaheim
gutierrez
sinai
bram
fresno
madhya
proton
reelected
wanda
ample
distinguishing
grasping
sermons
tomato
bland
stimulation
avenues
spreads
scarlett
fern
pentagon
assert
baird
chesapeake
ir
calmed
distortion
fatalities
correctional
pricing
prom
dammit
ying
collaborate
welterweight
pointer
substitution
bonded
umpire
communicating
multitude
paddle
intimacy
betray
ssr
airbus
functioned
ud
bearer
biomedical
netflix
condom
brink
ik
macy
flap
gma
experimented
jelly
lavender
munro
rye
gigs
hottest
rotated
predictions
fuji
bu
barangay
clocks
cereal
roe
wight
decker
uttered
babu
onion
xml
forcibly
petra
sarcasm
hartley
peeled
storytelling
fibre
kiel
auditor
fig
harald
greenville
nell
quartz
cemeteries
crossings
nah
holloway
reptiles
chun
sichuan
snowy
correction
zheng
blacksmith
fielded
fluids
hardcover
turnover
melvin
academies
ro
roach
absorbing
spaniards
colton
outsider
espionage
kelsey
edible
dora
establishes
contracting
cinematic
costello
nesting
connolly
duff
mma
fergus
sexes
gi
optics
spectator
woodstock
banning
differentiate
outfielder
refinery
gerhard
horde
lair
landfall
motorsport
odi
predominant
quay
skins
edna
complementary
murdering
wreckage
ono
outstretch
lennox
munitions
galen
reconcile
scalp
bicycles
gillespie
questionable
rosenberg
guillermo
hostel
jarvis
kabul
volvo
opium
yd
abuses
decca
outpost
sensible
neutrality
ponce
anchorage
atkins
turrets
disagree
libre
vodka
reassuring
weighs
glide
jumper
ceilings
repertory
outs
stain
envy
smashing
heightened
policing
hyun
mixes
lai
prima
celeste
lucrative
intervened
kc
stature
staffed
bun
bastards
nairobi
priced
thatcher
tripped
comune
brasil
incentives
emanuel
hereford
musica
benedictine
biennale
eureka
gardiner
rb
knocks
sha
efficacy
ventura
masonic
sanford
maize
leverage
capacities
santana
novelty
vanilla
benin
neptune
drafting
tallinn
humiliation
schleswig
fabian
bernardo
liturgy
spectacle
sweeney
pont
routledge
cosmos
ut
hilt
sleek
typed
favors
allegheny
glaciers
recalling
aziz
parasite
requiem
auf
illumination
festivities
bows
govern
vibe
vp
sprawled
larson
pilgrim
bwf
leaping
alexei
greyhound
hoarse
seneca
gaping
cinnamon
craven
fantasies
houghton
engined
reigned
dictator
supervising
bogota
commentaries
unnatural
fingernails
spirituality
tighten
canadiens
protesting
intentional
cheers
sparta
widen
belgarath
controllers
dodd
iaaf
navarre
defect
squire
steiner
whisky
inevitably
tome
chew
elastic
streaked
alliances
jailed
regal
czechoslovak
narration
bluegrass
guangdong
quran
criticizing
hose
hari
skier
streaks
deploy
raft
bose
dialed
huff
haifa
simplest
bursting
endings
ib
sultanate
franks
whitman
ensures
sven
collaborators
forster
organising
ui
banished
napier
injustice
teller
layered
thump
roc
battleships
evidenced
fugitive
sadie
robotics
equatorial
geologist
yielding
internationale
mecca
sbs
skyline
toad
uploaded
reflective
undrafted
lal
leafs
bayern
lakshmi
shortlisted
camouflage
donate
af
christi
lau
disclosed
nemesis
assemble
straining
northamptonshire
tal
bernardino
premature
heidi
coefficients
galactic
reproduce
buzzed
sensations
zionist
monsieur
myrtle
archery
strangled
viewpoint
antiquities
bei
trailers
seahawks
cured
pee
preferring
tasmanian
lange
sul
colder
overland
lucivar
massey
gatherings
haitian
disapproval
flaws
npr
boroughs
creole
forums
techno
dent
abdominal
streetcar
procurement
gemini
predictable
acheron
christoph
feeder
fronts
vendor
bernhard
jammu
tumors
slang
goaltender
twists
curving
manson
vuelta
mer
peanut
confessions
pouch
unpredictable
allowance
theodor
vascular
bala
authenticity
metabolic
coughing
nanjing
pembroke
splendid
ff
elmer
handel
awarding
thrusting
dl
experimentation
caressed
entertained
steak
biologist
orphans
baroness
oyster
stepfather
mirage
reefs
speeding
barons
inhabit
preached
repealed
honoring
boogie
captives
administer
johanna
gel
sobs
backbone
hayward
garry
maxi
ellison
galileo
crimea
frenzy
amour
bumper
matrices
natalia
baking
garth
palestinians
smack
conveyed
ensembles
gardening
harvesting
topography
jing
shifters
dormitory
ist
skulls
dolores
jewellery
sarawak
fences
christy
confinement
tumbling
credibility
fir
stench
virtues
marjorie
pba
celebrates
schooner
agitated
barley
fulfilling
anthropologist
restrict
novi
regulating
padres
loyola
tabitha
milky
olson
proprietor
crambidae
guarantees
intercollegiate
ljubljana
hilda
ignorant
hooded
sardinia
frontman
privileged
witchcraft
jammed
laude
poking
bracket
amazement
yunnan
maharaja
linnaeus
commissioning
milano
akira
rani
regulator
grasses
luzon
crows
compiler
gretchen
seaman
edouard
tab
buccaneers
ellington
hamlets
whig
socialists
directorial
easton
mythological
rhineland
semantic
taut
dune
inventions
succeeds
replication
branched
jul
prosecuted
kangaroo
penetrated
middlesbrough
doses
bleak
madam
predatory
relentless
reluctance
hailey
crore
silvery
monstrous
transmissions
hawthorn
informing
toilets
caracas
crouch
kb
cartel
hadley
alexia
yvonne
cinderella
eton
superb
blizzard
stabbing
industrialist
maximus
groves
maud
clade
oversized
comedic
rosen
nomadic
fulham
montane
beverages
galaxies
redundant
swarm
buckinghamshire
fen
bearings
bahadur
gilles
phased
dynamite
faber
benoit
vip
booking
fractured
tailored
anya
spices
westwood
cairns
auditions
inflammation
steamed
skyla
thereof
watford
torment
archdeacon
transforms
lulu
demeanor
fucked
serge
mckenna
minas
entertainer
caress
originate
residue
beech
subsidies
emptied
gladstone
ru
firefighters
voodoo
het
nightingale
tamara
edmond
ingredient
weaknesses
silhouette
compatibility
withdrawing
hampson
anguish
giggling
bookstore
southernmost
tilting
bai
economical
rf
briefcase
dreadful
hinted
projections
shattering
totaling
analogue
indicted
periodical
fullback
haynes
thirst
stumble
penang
vigorous
octave
siberian
cbn
repeal
swaying
khalid
tanaka
unicorn
otago
plastered
lobe
riddle
perch
croydon
filtered
graeme
tripoli
crocodile
sufi
mined
inferno
lsu
swelled
utilizes
cale
periodicals
styx
hike
coop
lund
ala
hen
qui
transformations
disposed
sheath
chickens
fitzroy
sas
silesia
unacceptable
odisha
sabrina
pe
spokane
ratios
athena
massage
shen
dilemma
corona
doubtful
niall
fines
cite
acknowledging
bangor
ballard
bathurst
huron
mustered
alzheimer
garments
kinase
tyre
warship
flashback
pulmonary
braun
cheat
kamal
cyclists
constructions
grenades
ndp
traveller
excuses
stomped
signalling
trimmed
futsal
mosques
relevance
wta
hoc
optimistic
deco
sim
interacting
rejecting
moniker
waterways
mayors
gdansk
outnumbered
pearls
fairs
totals
dominating
notions
stairway
compiling
pursed
commodities
grease
yeast
carthage
griffiths
residual
amc
contraction
laird
sapphire
amalgamation
dissolve
inclination
lyle
packaged
altitudes
suez
canons
graded
lurched
narrowing
boasts
guise
wed
enrico
rower
scarred
bree
cub
iberian
protagonists
bargaining
proposing
trainers
voyages
vans
fishes
encryption
artworks
kazan
sabre
cleopatra
hepburn
rotting
supremacy
mecklenburg
burrows
hazards
outgoing
flair
organizes
scorpion
boo
chevalier
dunedin
slapping
ineligible
pensions
manufactures
emails
bismarck
weakening
blackish
ding
mcgee
quo
northernmost
xx
manpower
greed
sampson
clicking
torre
symbolism
asshole
meritorious
outfits
splashed
biographies
sprung
astros
filly
raoul
nw
tokugawa
linden
clubhouse
tracts
romano
putin
tags
chained
dickson
gunshot
moe
gunn
rashid
zipper
contrasted
plum
pharaoh
aw
comedies
ingrid
sandwiches
subdivisions
mariana
nokia
kamen
hz
delaney
veto
herring
possessive
outlines
siemens
stairwell
rc
gallantry
messiah
palais
yells
zeppelin
bolivar
smackdown
mckinley
muted
geologic
unitary
avatar
hamas
maynard
rees
bog
contrasting
liv
chico
disposition
pixel
becca
dmitry
yeshiva
narratives
mercenary
sharpe
tempered
navigate
stealth
amassed
keynes
untouched
havoc
lithium
abyss
graf
southward
wolverine
balloons
implements
ngos
transitions
ambushed
concacaf
dormant
economists
costing
csi
rana
universite
boulders
verity
collin
mellon
misses
cypress
fluorescent
spence
crewe
shepard
pak
revelations
jolly
gibbons
paw
freeing
shack
fries
palatine
accompaniment
cruising
recycled
erwin
sorting
synthesizers
dyke
realities
sg
strides
enslaved
wetland
competence
gunpowder
grassy
maroon
reactors
objection
carlson
gearbox
macintosh
radios
shelton
clergyman
prakash
mongols
trophies
oricon
stimuli
cantonese
cortes
mirrored
bhp
cristina
melancholy
enjoyable
nuevo
downfall
schumacher
banging
lausanne
rumbled
paramilitary
reflex
ax
amplitude
migratory
midi
barnard
sherry
keystone
carleton
slippery
coloring
foe
socket
otter
mats
consultants
bafta
bison
topping
primal
transplant
atoll
hideous
mort
pained
reproduced
tae
howling
unlawful
billionaire
hotter
poised
lansing
dinamo
retro
messing
nfc
domesday
blitz
timed
ascending
gesturing
signaled
tis
chinatown
mermaid
savanna
jameson
catalina
cochrane
cy
chatting
alerted
computation
mused
noelle
majestic
mohawk
campo
octagonal
aspiring
comprehend
iona
paralyzed
shimmering
swindon
rhone
reputed
configurations
pitchfork
agitation
francais
gillian
lipstick
outsiders
pontifical
resisting
sewer
rockies
misleading
exiting
galloway
risked
commemoration
schultz
integrating
poses
shrieked
guineas
gladys
jerking
owls
goldsmith
penetrating
lia
ignited
betsy
follower
coded
kiran
knit
zoology
tbilisi
repository
govt
deciduous
dino
growling
enhancement
unleashed
chanting
pussy
biochemistry
kettle
repression
toxicity
nrhp
ernesto
commended
outspoken
mca
parchment
sms
kristen
bisexual
raked
glamour
navajo
conditioned
showcased
spacious
youthful
usl
appliances
junta
brest
layne
conglomerate
enchanted
chao
loosened
picasso
circulating
inspect
montevideo
piazza
spurred
bari
freedoms
poultry
stamford
lieu
indigo
sarcastic
bahia
stump
attach
dvds
frankenstein
lille
approx
scriptures
pollen
nmi
overseen
tides
proponent
newmarket
inherit
milling
centralized
distributors
credentials
drawers
abbreviation
downing
uncomfortably
ripe
erase
franchises
populace
decomposition
pleas
daryl
sabah
genie
lesions
annette
oboe
appendix
nair
dripped
petitioned
maclean
mosquito
parrot
rpg
hampered
operatic
reservoirs
irrelevant
jolt
summarized
medallion
clawed
harlow
narrower
goddard
marcia
bodied
fremont
suarez
altering
tempest
mussolini
porn
oversees
walkers
solitude
shrines
hk
ich
supervisors
hostess
dietrich
legitimacy
brushes
expressive
dissipated
localized
systemic
gettysburg
dialogues
muttering
housekeeper
sicilian
discouraged
beamed
kaladin
halftime
kidnap
synonymous
depleted
instituto
insulin
reprised
clashed
interrupting
radcliffe
insisting
medici
ejected
turbulent
starvation
shipment
rebellious
petersen
verification
merits
cakes
milford
shortages
spying
fidelity
emitted
storylines
harvested
seismic
cheung
kilda
barbie
lynx
goblin
mata
poisonous
reactive
residues
obedience
conjecture
hating
sixties
kicker
moaning
motown
emancipation
neoclassical
consoles
ebert
professorship
sustaining
assaults
obeyed
affluent
incurred
tornadoes
emphasizing
highlanders
cheated
helmets
internship
terence
bony
executions
berries
peninsular
tinged
amplifier
corvette
ribbons
lavish
pennant
mariano
pyrenees
expenditures
chesterfield
mandir
tailor
sergey
nestled
willed
aristocracy
devotees
goodnight
raaf
rumored
weaponry
remy
appropriations
harcourt
burr
riaa
limitation
unnoticed
guo
soaking
swamps
collapsing
tatiana
descriptive
brigham
psalm
maddox
patti
caliph
akron
injuring
serra
basins
astonished
launcher
hilary
wilkins
sewing
stinging
underwood
startup
compilations
vibrations
embankment
jurist
bard
juventus
groundwater
kern
palaces
helium
boca
cramped
marissa
soto
jae
faso
bazaar
pairing
wien
freaked
ulysses
rebirth
mummy
guzman
jimenez
stilled
trajectory
tha
woken
archival
professions
hilly
shadowy
shrink
norwood
glued
migrate
stereotypes
devoid
evacuate
horrors
infancy
gotham
knowles
optic
downloaded
sachs
kingsley
parramatta
darryl
mor
shady
commence
confesses
kan
marlborough
roundabout
regents
frigates
io
gothenburg
revoked
carvings
clockwise
convertible
intruder
banged
vicky
bourgeois
dupont
footing
pd
buckle
yun
penthouse
sane
serviced
stakeholders
neumann
bb
comb
catchment
pinning
rallies
typing
forefront
freiburg
sweetie
giacomo
widowed
goodwill
worshipped
aspirations
midday
fishery
bournemouth
turk
hearth
ethanol
guadalajara
murmurs
sl
afforded
scripted
wah
coroner
translucent
memorials
puck
progresses
clumsy
candace
recounted
filtering
howl
strata
heron
leveled
dubious
citations
exhibiting
turkic
injunction
antibodies
organise
cardiovascular
cushion
inverness
dia
cocoa
sibling
expanse
feasible
tunisian
algiers
rus
bloomberg
dso
westphalia
bro
tacoma
downloads
konrad
duran
continu
jett
legislator
secession
translating
reacher
aleppo
tc
orchards
trapping
linguist
versatile
drumming
postage
calhoun
superiors
barefoot
leary
ignacio
alfa
kaplan
bratislava
mori
disturb
haas
cartridges
gilmore
radiated
salford
tunic
hades
archeological
delilah
magistrates
auditioned
brewster
charters
empowerment
blogs
cappella
dynasties
iroquois
whipping
raceway
truths
myra
weaken
judah
mcgregor
mic
refueling
burnley
bosses
markus
premio
query
dunbar
darkest
lyndon
sealing
commendation
reappeared
addicted
ezio
slaughtered
satisfactory
shuffle
fortification
warrington
resurrected
fargo
mane
foreword
ox
abrams
hua
sakura
uv
sentimental
midfield
sturdy
scrolls
macleod
entropy
mitochondr
cicero
excelled
thinner
convoys
perceive
grind
burkina
ops
guantanamo
wavy
layton
portico
superficial
clerical
outlaws
burials
muir
creditors
hauling
rattle
calais
monde
archers
reclaimed
dwell
wexford
hellenic
remorse
dough
furnishings
gabon
neurological
novice
contemplated
pulpit
nightstand
saratoga
documenting
pulsing
taluk
busted
marital
wasps
hodge
mcdonnell
mimic
fran
pendant
dhabi
musa
congratulations
argent
darrell
concussion
losers
regrets
thessaloniki
reversal
donaldson
hardwood
thence
achilles
ritter
demonic
jurgen
prophets
goethe
eki
classmate
buff
yank
irrational
perished
seductive
qur
sourced
mustard
ravine
barre
characterization
phylogenetic
boise
intercourse
seduce
fay
ferris
ogden
amar
nik
unarmed
evaluating
kyrgyzstan
mccormick
meiji
notoriety
stimulate
disrupt
figuring
instructional
mcgrath
groundbreaking
flinch
khorasan
agrarian
bengals
mixer
radiating
ingram
pitchers
nad
tariff
tata
appellate
lehigh
brawl
duct
texans
skipper
speculative
vomit
doctrines
stresses
davy
graders
whitehead
jozef
cumulative
haryana
paints
boon
cactus
dow
legions
perceptions
picturesque
periphery
rune
wr
celtics
sentencing
whoa
confirms
variance
moines
mathews
spade
rave
fronted
fx
blending
alleging
reared
grassroots
eroded
directs
ordeal
accelerate
hacker
rooftop
lev
buys
cebu
devote
specialising
choreographed
repetition
warehouses
paisley
tuscany
analogy
sorcerer
hash
huts
shards
descends
exclude
nix
chaplin
gaga
ito
vane
causeway
misconduct
limo
orchestrated
glands
jana
branching
contrasts
scoop
longed
chattanooga
syrup
cornerstone
precedence
frescoes
chilled
consult
modelled
snatch
peat
caucasian
humane
relaxation
spins
temperance
occupations
lambda
hybrids
moons
rolf
societal
yerevan
ness
befriended
mechanized
nominate
trough
boasted
cues
seater
bends
conductors
emptiness
eurasian
adriatic
tian
lark
propellers
chichester
jock
ev
credible
recounts
tori
loyalist
abduction
nepali
ventral
tempting
steered
javelin
dipping
laborers
prentice
looming
titanium
badges
emir
tensor
egyptians
rash
denies
hawthorne
lombard
showers
wehrmacht
dietary
trojan
welles
executing
horseshoe
lifeboat
elsa
infirmary
nearing
roberta
boyer
mutter
trillion
joanne
sinks
vortex
uruguayan
clasp
sirius
accelerator
prohibit
sunken
byu
chronological
diplomats
ochreous
symmetrical
maia
salts
reigns
atrocities
hess
bared
issn
cater
saturate
sable
voyager
dyer
yusuf
wolff
engraving
rollins
atheist
ominous
herr
chariot
martina
strung
horrific
sahib
gazes
saetan
erased
ptolemy
flushing
lauderdale
analytic
navarro
beak
gorilla
herrera
broom
guadalupe
raiding
sykes
bsc
deliveries
invasions
carmichael
tajikistan
thematic
ecumenical
sentiments
onstage
catastrophic
flanks
molten
waller
aimee
terminating
nehru
printers
outraged
empires
template
banners
repetitive
za
vegetarian
guiana
opt
cavendish
lucknow
synthesized
finalized
fictitious
mayoral
unreliable
embracing
peppers
rbis
inhibition
slashed
togo
embroidered
safari
salty
barron
benito
totaled
pubs
simulated
caden
devin
tolkien
momma
welding
sesame
gottingen
shaman
temeraire
pediatric
ck
assertion
radicals
composure
cadence
seafood
beaufort
lazarus
mani
warily
cunning
kurdistan
cantata
ares
nape
townland
geared
insulted
flutter
boating
violate
draper
dumping
malmo
firearm
alta
bono
obscured
exceeds
panorama
unbelievable
preschool
disconnected
installing
rescuing
secretaries
accessibility
bouts
slug
waterway
mindanao
halves
calming
liter
maternity
adorable
bragg
electrification
mcc
roxy
schizophrenia
munoz
kaye
whaling
mil
tingling
tolerant
unconventional
volcanoes
deportivo
robson
kaufman
neuroscience
wai
deportation
masovian
scraping
converse
hacking
bulge
yao
amp
mammoth
booster
claremont
hooper
nomenclature
pursuits
mclaughlin
melinda
catfish
barclay
substrates
taxa
zee
originals
kimberly
packets
padma
borrowing
ostensibly
solvent
lukas
shreveport
veracruz
cheney
tt
anatolia
hobbs
cyclic
radiant
alistair
greenish
siena
dat
independents
conform
pieter
hyper
applicant
bradshaw
spores
telangana
vinci
inexpensive
nuclei
jang
nme
soho
spd
cradled
receptionist
pow
fascism
experimenting
jocelyn
maris
stair
nocturnal
toro
constabulary
elgin
msc
doherty
doping
batter
maneuvers
intrinsic
showtime
cafes
gasps
lviv
ushered
fours
restart
astonishment
transmitting
flyer
shrugs
intriguing
cones
dictated
mushrooms
medial
escorting
gaped
godfather
djs
recaptured
timetable
vila
aerodrome
mortals
scientology
angelina
mag
convection
unpaid
insertion
intermittent
lego
endeavor
kota
pereira
bwv
glamorgan
insults
agatha
fey
fleetwood
mahogany
protruding
steamship
zeta
mcguire
suspense
advising
urges
meteor
gilded
inline
arroyo
stalker
revered
earle
introductory
mutants
puff
pulses
reinforcement
curses
lizards
stalk
correlated
fallout
macquarie
bearded
denton
heaving
winery
assign
dortmund
everest
invariant
charismatic
susie
bled
lesley
telegram
sumner
bk
wilcox
needy
colbert
duval
allotted
attends
imperative
replacements
hawker
insurgency
casts
ives
transitioned
authoritative
baylor
flex
cringed
plaintiffs
woodrow
drastic
ape
aroma
unfolded
commotion
nt
preoccupied
theta
routines
lasers
privatization
wand
domino
ek
clenching
nsa
showered
bile
handkerchief
pere
storing
christophe
insulting
nakamura
romani
asiatic
magdalena
palma
cruises
stripping
konstantin
soaring
forerunner
havilland
incarcerated
parasites
sincerity
disks
plank
saigon
corbin
homo
ornaments
powerhouse
chong
fastened
feasibility
idf
morphological
usable
aqueduct
jaguars
keepers
aleksandr
faust
assigns
ewing
bacterium
hurled
tricky
hungarians
integers
wallis
yamaha
hushed
oblivion
aviator
evangelist
friars
monograph
ode
airplanes
labourers
charms
hagen
tnt
rudder
fiesta
transcript
dorothea
ska
inhibitor
maccabi
retorted
raining
clauses
menacing
lineman
vamps
gloom
dealings
easing
seekers
helens
unmanned
basics
adjustments
brutality
horne
sui
aggregator
rhino
counters
zoom
mn
montenegrin
packard
reclaim
scholastic
thugs
pulsed
syriac
quan
saddam
banda
kobe
blaming
buddies
dissent
corbett
jaya
delle
erratic
lexie
amiga
hermes
chapels
gospels
jamal
compute
revolving
warp
armory
antrim
loki
braid
handwriting
subdistrict
funky
pantheon
concurrency
estimation
improper
juliana
johnstone
staten
communicated
sausage
stormy
superfamily
acidic
collateral
tabloid
bladder
austen
mcgraw
hannibal
mein
aquino
lucifer
wo
badger
boar
cher
christensen
greenberg
interruption
jem
mocked
bottoms
cambridgeshire
sprawling
eastwood
ghent
synth
advisers
hapoel
qu
daggers
estranged
fabricated
towels
vinnie
wcw
misunderstanding
anglia
nothin
unmistakable
chilly
marquette
truss
reece
bash
raion
waterfalls
labyrinth
queue
theorist
bharatiya
flexed
soundtracks
rooney
leftist
patrolling
wharton
alleviate
eastman
schuster
topographic
engages
unbearable
fairchild
dona
lurking
parisian
oliveira
ia
indictment
hahn
bangladeshi
vivo
antonia
expects
indoors
kildare
harlan
forgiven
childish
tavi
plausible
grimm
scooted
spartans
emery
azure
epilogue
flourish
bestseller
distressed
receipt
spitting
hermit
topological
drilled
subunit
francs
eel
octopus
footprint
petitions
ufo
interfering
leaking
palo
thistle
valiant
narayan
mcpherson
gonzales
dustin
novgorod
solos
doin
soluble
ashland
cuffs
carole
pendleton
whistling
vassal
deviation
revisited
constituents
rallied
rotate
loomed
amateurs
augsburg
auschwitz
crowns
skeletons
bonnet
dummy
globalization
simeon
sleeper
mandal
differentiated
milne
bundled
exasperated
talmud
owes
segregated
dentist
piracy
props
devlin
malicious
paws
dependency
pistons
rourke
jed
grammatical
tres
maha
wig
jayne
designate
arrogance
cambodian
clones
showdown
throttle
twain
lobes
metz
nagoya
braking
roaming
amin
crippled
indifferent
hoffmann
idols
intimidating
influenza
memo
onions
bandage
clandestine
observes
swiped
tangle
hugs
congresses
josiah
spirited
humanist
managerial
filmmaking
inmate
rhymes
debuting
grimsby
ur
duplicate
vigor
republished
bolshevik
refurbishment
antibiotics
martini
methane
newscasts
royale
horizons
levant
iain
visas
paler
manifestation
snuck
alf
chop
futile
pedestal
rehab
bmg
kerman
res
fairbanks
jarrett
abstraction
saharan
procedural
clearer
kincaid
sash
luciano
crunch
helmut
revolutionaries
creamy
leach
permitting
nes
plight
wendell
contra
ts
clancy
ipa
mach
staples
autopsy
disturbances
nueva
karin
pontiac
proxy
venerable
haunt
leto
bergman
expands
wal
canning
celine
cords
obesity
intrusion
planner
reasoned
sequencing
harrow
marred
mcintyre
repay
tarzan
darting
harrisburg
margarita
repulsed
belinda
hamburger
novo
compliant
runways
bingham
registrar
skyscraper
ic
cuthbert
improvisation
livelihood
admiring
sporadic
believer
casablanca
popcorn
asha
shovel
coiled
tangible
casper
elsie
resin
rectory
avail
sonar
boutique
guerre
bathed
upbringing
vaulted
sandals
blessings
foxes
pia
corrosion
confederates
crystalline
footprints
shapiro
tirana
valentin
drones
microscope
shipments
texted
inquisition
wry
guernsey
unauthorized
resigning
ripple
schubert
stu
reassure
felony
brittle
koreans
dun
implicit
tyres
magnolia
fei
gr
familiarity
indicative
jimmie
overrun
anchors
moans
britannia
armagh
seizing
bewildered
mundane
avoidance
cosmopolitan
geometridae
quartermaster
caf
chatter
engulfed
gleam
purge
juliette
jurisprudence
guerra
revisions
casimir
brew
clapton
cloudy
conde
hermitage
simulations
torches
vincenzo
matteo
hidalgo
booming
westbound
accomplishment
tentacles
unaffected
annabelle
flopped
sloping
dreamer
interceptor
vu
consecration
copying
messaging
breaker
climates
hospitalized
torino
afternoons
winfield
witnessing
breakers
choirs
sawmill
sipping
haste
uninhabited
conical
bibliography
pamphlets
severn
edict
deux
illnesses
grips
rehearsals
sis
thinkers
tame
acacia
reformer
shuffling
eastbound
ionic
rhea
flees
littered
rocker
vomiting
groaning
champ
civilizations
paces
sloop
adoptive
skaters
aiding
mango
nikola
shriek
pharmaceuticals
tuna
calvert
gustavo
stocked
yearbook
computed
subsp
riff
hanoi
kelvin
hamid
moors
pastures
summons
jihad
nectar
bayou
untitled
pleasing
republics
intellect
crumbling
stylistic
sb
consolation
frequented
walden
widows
chunks
improves
grit
recited
snarl
sociological
inquired
bruise
clube
consultancy
homogeneous
hornets
multiplication
pasta
prick
savior
yoon
grimes
vanishing
cheering
reacting
bn
distillery
coe
dockyard
massif
escorts
voss
byte
chopped
hawke
illusions
workings
floats
kv
annapolis
madden
alvaro
noctuidae
avenge
steamboat
forte
illustrates
erika
dew
nationalities
bran
manifested
thirsty
diversified
muscled
reborn
arson
willoughby
alsace
dashboard
yuki
granville
myspace
publicized
tricked
adjective
relic
reorganisation
indications
saxe
consolidate
iec
padua
ramps
renaming
regulars
pedestrians
accents
convicts
inaccurate
lowers
mana
barrie
bjp
outta
someplace
berwick
flanking
invoked
marrow
excerpts
clothed
rei
wept
alexa
excel
membranes
aquitaine
creeks
cutler
sheppard
implementations
ns
fragrance
budge
concordia
magnesium
marcelo
vibrating
montrose
lew
seamus
cocky
bjorn
fielder
fluttering
methyl
kimberley
mcdowell
reductions
barbed
aeronautical
condensed
distracting
huffed
claudius
invincible
missy
pious
balthazar
ci
butte
combo
orson
myriad
silenced
coco
netball
yourselves
clarify
heller
peg
durban
etudes
offender
roast
blackmail
curvature
vile
illicit
suriname
overture
bubbling
gymnast
tucking
maldives
gurney
backside
pinto
jars
racehorse
tending
baronetcy
wiener
duly
barbarian
cupping
flawed
bertha
pleistocene
puddle
swearing
fleeting
prostate
amulet
educating
jens
respondents
analytics
cavaliers
papacy
raju
funnel
disneyland
sociologist
faulkner
louvre
menon
afterlife
mannheim
peptide
referees
comedians
fabrics
hurley
renal
sleeps
breakout
kristin
roadside
animator
clover
disdain
unsafe
redesign
firth
barnsley
portage
reset
narrows
commandos
expansive
tubular
essendon
eyelashes
smashwords
craved
sprinted
chet
somme
astor
orton
bane
mischief
scaling
terre
impairment
offenses
undermine
moi
soy
contiguous
arcadia
inuit
seam
macbeth
rebelled
elaborated
frs
uniformed
priscilla
stimulated
qc
arboretum
frustrating
trieste
bullock
enriched
glistening
intern
locus
nouvelle
ollie
ike
lash
starboard
ee
tapestry
headlined
hove
rigged
pollock
thrive
clustered
cas
roi
gleamed
olympiad
pressured
regimes
ripley
kickoff
gallon
rockwell
crusader
glue
revolutions
scrambling
grover
englishman
aztec
contemplating
coven
ipad
preach
triumphant
tufts
rotational
falkland
strewn
clarissa
rejoin
glint
drench
moat
albanians
johor
rr
maestro
malley
nouveau
shaded
taxonomy
adhere
bunk
airfield
remington
tran
amelie
mazda
friar
morals
passions
breadth
vis
argus
burnham
caressing
insider
rudd
italianate
murderous
textual
wainwright
armada
bam
weave
timer
fra
ardent
salazar
taps
tunis
allegro
gland
philanthropic
implication
esq
judas
noticeably
wynn
inched
indexed
crises
villiers
bandit
royalties
patterned
cupboard
interspersed
accessory
isla
kendrick
entourage
stitches
headwaters
interlude
distraught
draught
biased
sy
transient
triad
subgenus
adapting
kidd
shortstop
spiked
mcleod
reprint
nellie
pretoria
windmill
singled
reunite
bankers
outlying
apologies
cosmetics
patsy
bender
nantes
serene
lucha
mmm
cmll
coinage
nestor
juarez
smeared
sprayed
twitching
sterile
irina
embodied
juveniles
enveloped
miscellaneous
cancers
dq
gulped
luisa
crested
swat
donegal
ref
hearst
mercantile
doorbell
ua
vicki
bilbao
psychologists
stryker
sw
horsemen
turkmenistan
wits
anson
mathew
screenings
rihanna
aisles
hines
kenton
saskatoon
tasha
truncated
mildred
advises
fredrik
interpreting
inhibitors
spectroscopy
karim
panda
conqueror
kgb
leukemia
arrivals
cheered
pisa
phosphorus
shielded
mammal
unitarian
chopin
sanitary
spicy
drugged
hinges
tipping
trier
impoverished
westchester
epoch
nonstop
aromatic
cerro
billions
modulation
sedimentary
facilitating
outrageous
goldstein
ld
maitland
penultimate
pollard
fleets
spaceship
vertebrae
alcoholism
als
recital
trois
commemorates
marge
cosmetic
ravaged
catastrophe
eng
albrecht
arterial
bellamy
decor
harmon
bulbs
synchronized
vito
easiest
shetland
shielding
wnba
brianna
cumbria
cores
thayer
brood
hilltop
luminous
carts
keynote
larkin
logos
lilith
tinted
wrestle
mobilization
sequential
siam
bloomfield
takahashi
presenters
ringo
blazed
witty
devastation
haydn
harmed
newt
therese
gershwin
molina
rabbis
sudanese
innate
restarted
slices
wb
enroll
hypothetical
hysterical
fabio
indefinite
warped
exchanging
unsuitable
gallo
bret
cobalt
homemade
mx
operatives
terraces
durable
latch
pens
whorls
billing
ligament
succumbed
regulators
spawn
filmfare
rochelle
circumstance
saber
supplements
crowe
wellesley
carrot
primate
drury
topical
callahan
kyiv
smarter
tits
undo
announcements
anthologies
barrio
nebula
bodyguards
assassinate
barns
emmett
scully
demoted
gorman
lashed
prized
adventist
writ
alla
invertebrates
amman
align
healy
redistribution
insulation
adherents
hezbollah
vitro
ferns
yanking
php
registering
uppsala
cheerleading
confines
mischievous
tully
docked
roam
stipulated
pumpkin
prompt
shuddering
craftsmen
frail
scented
katharine
scramble
shaggy
sponge
helix
zaragoza
backlash
fontaine
seizures
posse
cowan
nonfiction
telenovela
wwii
hammered
undone
encircled
irs
artefacts
oneself
searing
smallpox
shandong
breached
upland
blushing
rankin
psyche
tolerated
docking
evicted
unmarked
gnome
lettering
litres
musique
benevolent
blackened
mccall
racers
tingle
introductions
munchen
plead
condo
scissors
apprehension
hallmark
watering
formulas
sequels
aggravated
bae
commencing
enfield
marne
vedic
civilized
euclidean
jagger
beforehand
blasts
dumont
conversions
hierarchical
rios
simulator
hedges
oleg
thrusts
shadowed
darby
maximize
gregorian
sham
unspecified
emory
factual
fooled
ortega
marlon
casket
keating
ley
enclave
char
influencing
jia
ammonia
erebidae
incompatible
violins
cornered
grooves
astronauts
columbian
rampant
fabrication
kyushu
mahmud
vanish
mesopotamia
ict
caspian
kenji
pitted
grimace
roanoke
tchaikovsky
twinned
xinjiang
arias
clemson
kazakh
sizable
plunge
tatum
vittorio
cholera
bracing
indifference
projectile
superliga
realises
upgrading
porte
retribution
nk
stil
ama
bureaucracy
blackberry
bosch
testosterone
collapses
greer
ioc
fifties
malls
bao
baskets
adolescents
siegfried
mantra
detecting
existent
fledgling
dissatisfied
gan
telecommunication
mingled
sobbed
controversies
outdated
taxis
fright
slams
detectors
fetal
tanned
fray
goth
olympian
skipping
mandates
scratches
sheng
unspoken
hyundai
tracey
hotspur
restrictive
americana
mundo
burroughs
diva
vulcan
distinctions
thumping
mikey
sheds
fide
rescues
springsteen
vested
valuation
pinnacle
rake
sylvie
almond
quivering
alteration
faltered
hydra
ticked
recommends
antigua
arjun
stagecoach
wilfred
trickle
pronouns
aryan
nighttime
gall
pea
stitch
leung
milos
eritrea
nexus
starved
snowfall
kant
parasitic
cot
discus
hana
strikers
appleton
kitchens
disclose
metis
tesla
fitch
blooded
decimal
cyclones
eun
bottled
peas
pensacola
basha
bolivian
crabs
boil
lanterns
partridge
roofed
necks
opined
patting
chuckles
volta
whereupon
devout
euroleague
suicidal
involuntary
knitting
nasser
puppets
colourful
courageous
southend
stills
miraculous
hodgson
richer
rochdale
ethernet
greta
uniting
prism
umm
deterioration
pointe
prowess
lids
scranton
billings
subcontinent
brute
kellogg
psalms
degraded
ferreira
pun
astonishing
gunnar
arya
prc
gottfried
excursion
dina
huffington
illustrious
wilbur
gundam
verandah
naacp
constructive
fjord
kade
generosity
thrilling
baseline
cayman
frankish
plastics
accommodations
zoological
cedric
qb
motorized
squealed
tackled
canucks
budgets
situ
asthma
dail
gabled
grasslands
whimpered
writhing
judgments
minnie
pv
bananas
grille
domes
monique
odin
maguire
markham
tierney
libel
poke
speedy
atrium
laval
notwithstanding
fai
kala
robb
listings
luz
supplementary
tianjin
enzo
jd
ric
scanner
croats
transcribed
arden
cv
seventies
staggering
alam
horticultural
hs
regression
timbers
blasting
montagu
manipulating
catalytic
troopers
condemnation
fitzpatrick
inexperienced
castes
outing
dubois
flicking
quarrel
ste
learners
iq
whistled
classify
tariffs
temperament
folly
liszt
immerse
jordanian
ceasefire
apparel
extras
maru
fished
harta
stockport
assortment
craftsman
paralysis
transmitters
proficiency
repairing
amore
groceries
ultraviolet
schoolhouse
resurgence
nailed
ruse
saliva
diagrams
albans
rann
thirties
antennas
hilarious
cougars
paddington
stats
breakaway
ipod
reza
authorship
scoffed
conscription
defected
trondheim
ivanov
keenan
locating
cadiz
basalt
interned
rags
rattling
carpathian
reassured
sync
bum
guildford
iss
staunch
sera
sofie
emergencies
susquehanna
duc
mastery
williamsburg
bayer
buckled
craving
bloomington
alton
barbecue
justine
delightful
smartphone
newtown
photon
retrieval
peugeot
hissing
flavors
lighted
relaunched
tainted
anarchy
microscopic
hopping
adept
evade
evie
inhibit
sinn
adjustable
hurst
intuition
wilton
cisco
lawful
lowlands
stockings
thierry
fates
prank
tb
maison
lobbied
provocative
utopia
carbonate
gujarati
purcell
curtiss
overgrown
arenas
mediation
swallows
respectful
turnbull
alyssa
ozone
ami
gestapo
johansson
snooker
canteen
cuff
declines
empathy
stigma
taxpayers
gui
volga
lifespan
overcame
tattooed
enactment
giggles
barrington
bribe
obligatory
orbiting
peng
elusive
sucker
cong
hardship
empowered
anticipating
estrada
cryptic
greasy
detainees
planck
sudbury
plaid
dod
marriott
kayla
cognition
radha
liechtenstein
meade
argyle
harpsichord
liberalism
trumpets
lauded
tyrant
salsa
tiled
lear
promoters
reused
slicing
trident
cantor
checkpoint
gaul
leger
mammalian
doha
frenchman
nirvana
delgado
headlining
jug
tko
naga
intersections
benfica
nawab
ashford
gulp
brentford
frazier
pleasures
dunne
potsdam
shenzhen
dentistry
flanagan
chorale
dinah
prem
quezon
relinquished
sutra
terri
flaps
poly
homme
aback
linger
womb
doorstep
orthodoxy
threaded
westfield
dioceses
fridays
subsided
loyalists
letterman
lunatic
prelate
invariably
souza
thug
winslow
furlongs
gogh
jeopardy
pegasus
humiliated
standalone
tagged
freshmen
klan
attaining
initiating
transatlantic
logged
viz
combatants
intervening
stephane
chieftain
despised
grazed
cdc
galveston
godzilla
macro
simulate
parades
equator
overdose
joshi
epstein
sonora
treacherous
aquatics
manchu
responsive
supervisory
kimball
karlsruhe
mab
ignores
phonetic
reuters
spaghetti
almighty
danzig
rumbling
tombstone
designations
lured
outset
supermarkets
grupo
kei
kraft
susanna
comprehension
genealogy
redding
bowing
lest
sharpened
fulbright
valkyrie
sikhs
swans
bouquet
merritt
commuted
redhead
clerks
leasing
cesare
dea
hazy
fledged
greenfield
servicemen
armando
blackout
dt
sagged
downloadable
intra
potion
pods
xp
attendants
gambia
stale
plump
asteroids
rediscovered
buds
flea
hive
classifications
debuts
olympus
scala
hummed
sigismund
visuals
wiggled
await
pilasters
clench
sulfate
bellevue
enigma
trainee
snort
clouded
denim
churning
hartman
lodges
riches
sima
accountable
socrates
regulates
mueller
avoids
solids
himalayas
nutrient
pup
squat
fades
nec
privateer
tequila
apt
hornet
immortals
asturias
cleansing
dario
etymology
servicing
zhejiang
horned
erasmus
rayon
relocating
escalated
promenade
stubble
artisans
axial
liquids
mora
sho
yoo
bundles
oldies
notification
bastion
sparkle
leash
pathogen
highs
immature
gonzaga
ignatius
mansions
monterrey
sweets
bryson
polled
regatta
brightest
pei
rosy
squid
hatfield
payroll
addict
meath
cornerback
heaviest
lodging
capcom
rippled
barnet
mayhem
ymca
snuggled
rousseau
blanchard
fragmented
leighton
chromosomes
risking
corinne
coyotes
cynical
hiroshi
yeomanry
ebook
grading
mandela
plume
agustin
magdalene
bea
femme
trafford
fourier
upton
camilla
gust
iihf
islamabad
longevity
feldman
netting
endeavour
foraging
mfa
orr
greyish
contradiction
graz
handicapped
marlene
tweed
oaxaca
spp
campos
miocene
pri
configured
cooks
pluto
cozy
pornographic
glided
jonny
lynne
rounding
sired
remade
uncover
complied
lei
newsweek
finer
guerrillas
athenian
deng
disused
stepmother
accuse
seduction
confronting
gora
nostalgia
sabres
virginity
wrenched
syndication
wielding
eyre
behaved
taxpayer
sweeps
gallant
amplified
geraldine
scrape
babylonian
fresco
restricting
tack
fukuoka
osborn
selector
partnering
gnu
kia
tak
whitley
gables
mri
immersion
chilling
insignificant
pcs
elites
lina
purported
supplemental
teaming
proficient
rouen
niccolo
selects
fluffy
gruff
knotted
mukherjee
polgara
thrash
nicholls
secluded
smoothing
thru
corsica
loaf
whitaker
inquiries
indochina
marlins
myles
peking
extracts
pastry
superhuman
connacht
vogel
gloss
quarries
refit
teaser
materialized
sling
camped
pickering
tung
tracker
pursuant
cranes
soc
anhalt
overboard
workout
chores
fares
orphaned
stains
fenton
surpassing
joyah
triggers
grandmaster
clapping
fraudulent
ledger
nagasaki
eucalyptus
tun
dax
heroism
ina
wrexham
onboard
unsigned
moshe
galley
winnie
droplets
exiles
praises
watered
noodles
fein
adi
leland
multicultural
stink
bingo
comets
erskine
modernized
canned
constraint
chemotherapy
featherweight
stifled
irresistible
refreshing
hasty
isolate
kitchener
planners
cages
yarn
implant
toulon
elects
childbirth
yue
cn
rightful
sportsman
junctions
remodeled
specifies
complimented
lister
ot
bequeathed
cheekbones
fontana
gabby
amadeus
corrugated
maverick
resented
triangles
nazareth
tyrol
assent
poorer
sectional
aegean
nylon
ghanaian
cushions
forbid
fusiliers
obstruction
somerville
dime
earrings
elliptical
leyte
oder
timmy
atm
midtown
piloted
settles
mayfield
enrichment
henson
keane
persians
benji
braden
pep
contenders
pepsi
valet
goofy
stroll
authoritarian
occurrences
adversary
ahmedabad
tangent
toppled
dorchester
modernism
marxism
islamist
charlemagne
exponential
racks
unicode
brunette
mbc
pic
skirmish
hoisted
messina
shatter
jedi
vantage
clemens
mahmoud
corrupted
authentication
lowry
nils
omnibus
wounding
jillian
serialized
narcotics
handheld
intersecting
stimulating
crate
fellowships
hemingway
casinos
climatic
fordham
copeland
drip
beatty
leaflets
robber
brothel
madeira
sphinx
ultrasound
valor
forbade
leonid
villas
duane
marquez
disadvantaged
forearms
kawasaki
reacts
consular
lax
uncles
uphold
concepcion
dorsey
lass
arching
passageway
researches
tia
internationals
distinguishes
javanese
divert
plotted
affirmative
signifies
validation
kari
felicity
georgina
zulu
overcoming
argyll
chiba
ratification
windy
earls
parapet
hunan
pristine
astrid
punta
brodie
malaga
minerva
rouse
bellowed
pagoda
portals
reclamation
parentheses
quoting
allergic
palette
showcases
benefactor
heartland
nonlinear
bladed
scans
girlfriends
pedersen
hiram
sous
bobo
primaries
smiley
unearthed
fis
metadata
ind
recoil
hilbert
jamestown
mcmillan
tulane
seychelles
antics
coli
fated
stucco
bulky
accolades
arrays
caledonian
carnage
optimism
puebla
enforcing
rotherham
seo
dunlop
aeronautics
chimed
incline
zoning
archduke
hellenistic
candi
thong
magnate
rustic
projective
slant
danes
hollis
vocalists
congenital
contend
gesellschaft
douglass
quieter
howled
salim
townsville
buena
southport
kato
faerie
realising
taboo
bytes
straightening
jena
cartwright
berber
bertram
soloists
noses
coping
fission
hardin
inca
mobilized
vhf
biscuits
curate
gaunt
neighbourhoods
blanca
bypassed
sockets
behold
nara
shave
splinter
terrific
commonplace
juris
redwood
waistband
boxed
caitlin
fingerprints
jennie
naturalized
balfour
craters
jody
bungalow
quilt
glitter
pigeons
undertaker
bulging
constrained
goo
assimilation
reworked
persuasion
felicia
explodes
lyman
vulture
hog
overlook
begs
northwards
ow
spoil
fatima
favorably
accumulate
sargent
sorority
corresponded
dispersal
kochi
toned
internacional
newfound
booths
peanuts
medicare
muriel
nur
crates
millennia
pajamas
worsened
jimi
vanuatu
yawned
carousel
hurdle
rv
airship
ambiguity
compulsion
recapture
arthritis
asserting
ngc
sniffing
dade
discontent
glendale
ported
defamation
rammed
fling
livingstone
apocalyptic
comrade
lcd
cessna
eine
persecuted
subsistence
demi
hoop
reliefs
coptic
progressing
stemmed
perpetrators
priestess
dobson
ebony
rooster
itf
tortricidae
cleanup
eighties
taxonomic
holiness
antilles
showcasing
stabilized
gia
mascara
michelangelo
dawned
extinguished
fitz
grotesque
barges
neue
throbbed
cipher
johnnie
outburst
spearheaded
administrations
heartbreak
pixels
lombardy
plush
bobbie
reapers
tremor
xiang
minogue
substantive
hitch
barak
kwan
obscene
elegance
indus
surfer
bribery
conserve
horatio
apes
rebound
psychotic
iteration
botanic
horribly
antiques
dispose
paxton
disregard
engraver
hounds
looted
uno
facilitates
groans
masjid
rutland
antibody
disqualification
decatur
footballers
quake
slacks
rein
scribe
stabilize
commits
exemplary
tho
pantry
traversed
disrepair
identifiable
vibrated
baccalaureate
csa
interviewing
greaves
wealthiest
classed
jogged
illuminating
knicks
respecting
scrubbed
kruger
moods
growls
raider
silvia
chefs
kam
vr
cree
percival
gunter
counterattack
defiant
henan
ze
equivalence
submissions
bautista
cornice
herbal
templar
outputs
ruining
ligand
renumbered
extravagant
mika
blockbuster
eta
insurrection
darkening
ferocious
pianos
strife
kinship
melee
weep
puget
unease
hammering
kassel
ob
wessex
bromwich
egan
paranoia
utilization
contradictory
provoke
knesset
plumbing
greensboro
occult
sniff
zev
beaming
gamer
haggard
mahal
mendes
utmost
briefing
gunnery
khalifa
sonya
principals
urbana
wiring
dahl
nyu
skepticism
np
townspeople
ithaca
lobster
somethin
freighter
zimmerman
biceps
contractual
amend
hurrying
subconscious
meng
clermont
spawning
dignitaries
impetus
snacks
spotting
twigs
libertadores
nic
skylar
gustave
asean
dieter
legislatures
flirt
bromley
trolls
umar
blah
parc
bridgeport
crank
negligence
constantin
molded
siegel
carpets
compartments
upbeat
statehood
marko
platt
paving
abbess
impatience
limousine
nbl
lucille
mojo
nightfall
robbers
karel
brisk
calves
replicate
ascribed
telescopes
intimidated
ballast
specialization
aerodynamic
caliphate
rainer
visionary
epsilon
aggregation
auditory
boosted
reunification
kathmandu
loco
robyn
acknowledges
humanoid
newell
redeveloped
restraints
barbarians
chopper
italiana
investigates
wrestlemania
creaked
dragoons
minions
stupidity
volley
musik
fungal
massimo
semantics
malvern
discourage
embryo
imperialism
jiangsu
sparkled
stat
sweatshirt
tobin
sneered
brit
causal
smyth
diffuse
perrin
silvio
detonated
iqbal
selma
roasted
tay
completes
nipples
cfa
flavour
hirsch
calderon
sneakers
moravian
rq
bodo
anatomical
excerpt
dh
kunst
biomass
panted
unharmed
gael
housemates
montpellier
coa
rodents
tonic
hickory
singleton
aldo
breaststroke
dempsey
och
rocco
merton
dissemination
midsummer
serials
haji
polynomials
gs
enoch
shutter
taunton
archangel
harassed
archway
dazzling
sumo
wat
honneur
blogger
rents
hires
howie
handler
retracted
shocks
arun
duluth
kepler
trumpeter
peeking
seasoned
trooper
laszlo
heterosexual
indira
jogging
beit
dissatisfaction
malice
nedra
peeling
stadiums
vertigo
iced
restroom
illustrating
pear
inorganic
rappers
receipts
watery
lucinda
reintroduced
saxons
nutritional
wastewater
rained
favourites
bedrock
fisted
hallways
upscale
blinds
prequel
deter
humiliating
restraining
tn
vents
laundering
recess
rosary
tractors
coulter
federer
persistence
geschichte
pendulum
quakers
bassett
pictorial
buffet
koln
drills
reciprocal
shooters
converge
pip
dmitri
donnelly
yamamoto
aqua
azores
demographics
hypnotic
spitfire
suspend
roderick
sebastien
mavericks
himalayan
prodigy
transvaal
demonstrators
handcuffs
dodged
mcnamara
sublime
crazed
ivo
pondered
reconciled
shrill
sava
bal
cad
heresy
jaipur
goran
lux
shelly
whitehall
israelis
peacekeeping
demetrius
ousted
beale
anwar
backstroke
raged
shrinking
cremated
benign
towing
wadi
darmstadt
landfill
parana
soothe
colleen
sidewalks
mayfair
tumble
hepatitis
ferrer
superstructure
anthropological
translators
hooves
mondays
landscaping
purification
sock
thorns
thwarted
jalan
tiberius
saline
khyber
sculptors
brahms
hammersmith
inspectors
battista
fivb
fragmentation
hackney
exercising
antoinette
bedfordshire
dyed
racetrack
variability
austrians
deteriorating
madman
theorists
aix
lehman
weathered
decreed
eruptions
flaw
quinlan
sorbonne
flutes
nunez
adored
downwards
fable
rasped
moritz
mouthful
renegade
shivers
stunts
dysfunction
restrain
translit
pancakes
vial
bain
chihuahua
malacca
vimes
donnie
plaques
bangs
floppy
huntsville
loretta
nikolay
eater
handgun
ubiquitous
eras
zodiac
cochran
warring
dalai
excused
blazers
mcconnell
reeling
bot
este
geese
hoax
taxon
guitarists
condemning
hunts
inversion
moffat
taekwondo
stammered
sousa
fundraiser
marylebone
navigable
uptown
cabbage
daniela
salman
shitty
whimper
rm
forceful
fuss
brat
oppressive
reykjavik
spartak
ticking
adolph
horst
maui
protege
straighten
cpc
landau
concourse
clements
resultant
imaginative
joo
reactivated
consultative
flop
kaitlyn
mergers
parenting
somber
supervise
vidhan
courtship
exemplified
harmonies
medallist
refining
amara
goalscorer
sited
overshadowed
rohan
displeasure
secretive
multiplied
osman
engravings
padre
miniatures
mis
clap
pali
rook
antennae
astro
oskar
bulldog
crotch
hackett
yucatan
amplifiers
brno
ferrara
migrating
thanking
turing
mccann
ting
andersson
onslaught
gaines
ganga
incense
standardization
sentai
scuba
stuffing
turquoise
waivers
alloys
regaining
vaults
digger
furry
memorabilia
probing
payton
rec
deutschland
filippo
opaque
seamen
zenith
afrikaans
disciplined
inspirational
banco
confuse
grafton
tod
championed
simi
anomaly
biplane
electrode
cleavage
crossbow
swirl
informant
afi
bonfire
spec
lakeside
slump
facades
borg
cervical
xl
stabilization
chests
hacked
ctv
orthogonal
suzy
gaulle
jacobite
rearview
ashby
canine
disperse
latham
spielberg
ezekiel
cid
durga
middletown
customized
frontiers
harden
bolsheviks
coloration
yoko
briefs
slabs
debra
liquidation
plumage
blossoms
dementia
subsidy
proctor
relational
jerseys
parochial
ter
esa
peshawar
cavalier
loren
cpi
idiots
shamrock
dutton
malabar
mustache
referencing
terminates
marche
yarmouth
acton
mated
seton
subtly
baptised
beige
extremes
jolted
kristina
telecast
safeguard
waldo
endeavors
sloppy
subterranean
pigment
tq
collisions
coveted
herds
chopra
abnormalities
defective
galician
lucie
alligator
likened
burundi
clears
complexion
derelict
deafening
diablo
fingered
champaign
dogg
enlist
isotope
labeling
mrna
brilliance
marvelous
crawley
ether
footed
dwellers
deserts
hamish
rubs
warlock
skimmed
buick
embark
heraldic
irregularities
kiara
antigen
kowalski
oakley
visitation
vt
murderers
chimneys
condemn
custer
exchequer
havre
fluctuations
dfb
hendricks
vaccines
nietzsche
biking
juicy
brooding
scrolling
selangor
annum
boomed
seminole
sugarcane
departmental
dismissing
innsbruck
arteries
ashok
batavia
daze
kun
overtook
beheaded
gaddafi
holm
faulty
galilee
fractures
kobayashi
gunmen
magma
aramaic
mala
eastenders
inference
messengers
bf
bathrooms
flashbacks
misunderstood
mendez
uncanny
friendships
sacrament
accommodated
reiterated
logistical
pebbles
thumped
administering
decrees
drafts
futuristic
picket
intimidation
winthrop
interfered
afar
francoise
uta
cochin
croft
dwarfs
biker
nano
brightened
meek
parcels
gunners
agile
hysteria
bukit
champs
chevy
cuckoo
leith
sadler
theologians
welded
jj
plurality
xander
shredded
temps
pau
tormented
charred
ems
essen
alarms
spraying
ascot
blooms
twinkle
internment
obsidian
snoop
malibu
quiver
hays
mcintosh
travers
walsall
beverley
schwarz
plunging
rosenthal
vikram
ghz
chalmer
groningen
pew
reckon
unicef
sulawesi
avila
cai
metaphysical
screwing
turbulence
augusto
samba
baffled
momentary
toxin
aachen
condoms
dali
steppe
adolescence
dauphin
inaccessible
microscopy
nikita
atv
accountants
punishments
bribes
adventurous
clinch
flinders
southland
gough
lads
soared
undergoes
deformation
outlawed
rubbish
arcs
wheelbase
wheeling
bombardier
campground
zebra
lullaby
donetsk
wylie
grenada
squinting
eireann
opposes
maximal
runes
additive
britney
adultery
triggering
detrimental
aarhus
containment
jc
swapped
vichy
brant
broughton
rustling
asbestos
mentoring
finley
leaps
apical
pry
slits
substitutes
intuitive
fantasia
insistent
unreasonable
domed
hannover
margot
ponder
impromptu
jian
lc
rampage
stemming
andrey
gerais
whichever
amnesia
appropriated
anzac
clicks
modifying
ultimatum
cambrian
maids
verve
yellowstone
conservatoire
adherence
dinners
spectra
imperfect
sidekick
tatar
tuba
distrust
ronin
zac
celaena
instrumentalist
scents
skopje
comical
compensated
vidal
condor
intersect
jingle
wavelengths
mcqueen
carp
weasel
kanye
militias
postdoctoral
eugen
gunslinger
faux
hospice
appalled
derivation
dwarves
dilapidated
astoria
philology
inducing
philanthropy
geek
sql
bessie
indices
rn
frowns
resolving
weightlifting
tugs
cleric
contentious
mania
rms
bien
eels
marek
discreet
leaks
dung
compressor
hillsborough
pandit
shillings
distal
nosed
mangrove
undeveloped
textures
ae
irritating
nay
bancroft
apologetic
compassionate
kata
symphonies
airspace
gifford
precautions
fulfillment
sevilla
vulgar
martinique
looting
piccolo
tidy
quadrant
armchair
incomes
mathematicians
stampede
nilsson
foo
quarterfinal
shang
shouldered
squirrels
vinegar
delaying
ars
dwyer
rhapsody
sponsoring
bipolar
cinder
starters
signage
aground
figurative
mons
acquaintances
duets
soyuz
elliptic
recreated
moderator
scares
juniper
sighting
britten
calabria
ry
bop
cramer
forsyth
airmen
gathers
unfit
taunting
seeker
streamlined
holster
schumann
tread
vox
strive
dil
reforming
covent
newbury
predicting
decorate
tre
andover
ie
asahi
dept
dunkirk
gills
buren
huskies
abstracts
bets
loosen
yearning
berman
enamel
napoli
persist
attache
elisa
invitations
accelerating
reindeer
boardwalk
clutches
nelly
polka
starbucks
adamant
huey
lough
unbroken
adventurer
embroidery
inspecting
stanza
naia
taluka
chases
deprivation
florian
colossal
foreigner
vet
freaks
patrice
rosewood
triassic
upstate
dominates
ata
chants
ks
vo
agra
infiltrate
binoculars
enthusiast
fujian
squeak
abolitionist
almeida
boredom
hampstead
marsden
rations
inflated
bonuses
rosalie
patna
detachments
penitentiary
flourishing
woolf
papyrus
bobbed
dismounted
endelle
inhuman
motorola
tbs
wince
wreath
hideout
inspections
sanjay
disgrace
infused
pudding
stalks
arsenic
leases
collarbone
dowry
genealogical
nitrate
salamanca
scandals
thyroid
necessitated
##s
##a
##e
##i
##ing
##n
##o
##d
##ed
##r
##y
##t
##er
##ly
##l
##m
##u
##es
##h
##on
##k
##us
##c
##g
##an
##p
##en
##in
##man
##al
##ia
##z
##is
##b
##ra
##na
##ers
##f
##le
##ic
##x
##v
##te
##ne
##ie
##ton
##ta
##th
##la
##ness
##ch
##um
##da
##ry
##w
##ma
##rs
##el
##re
##os
##ar
##ka
##ist
##ian
##or
##ism
##ling
##ity
##as
##ley
##ted
##ng
##ville
##able
##ri
##ies
##land
##ur
##ya
##ine
##de
##ki
##ts
##ro
##less
##ey
##ion
##ha
##am
##ter
##ge
##ll
##se
##st
##ation
##nt
##son
##et
##ce
##to
##ting
##ble
##ke
##ni
##j
##tion
##ham
##ive
##do
##ca
##men
##ized
##ous
##va
##id
##co
##ck
##ns
##no
##ga
##li
##ment
##ba
##ner
##ko
##ate
##io
##wood
##led
##ty
##ve
##sa
##by
##ier
##ti
##field
##ford
##ja
##ler
##ally
##ina
##ization
##ful
##go
##il
##at
##hi
##berg
##der
##sh
##rd
##lin
##lo
##ot
##za
##q
##me
##ius
##line
##den
##it
##wa
##ad
##ite
##que
##ard
##les
##ff
##tor
##age
##di
##ir
##mi
##est
##ria
##ze
##well
##ated
##ee
##ah
##ji
##ov
##pa
##ish
##ps
##tes
##lla
##way
##house
##tic
##ger
##un
##ant
##burg
##ura
##town
##ding
##tte
##ping
##ize
##ay
##ging
##ol
##ss
##ent
##tt
##be
##ky
##ak
##ial
##han
##per
##nd
##ls
##ai
##au
##ny
##ring
##ut
##bury
##kin
##ron
##head
##ow
##ium
##mer
##pe
##sen
##ong
##ised
##bo
##ds
##ists
##ries
##dy
##ana
##worth
##ide
##ea
##ms
##nes
##don
##ku
##gan
##mo
##pur
##ul
##si
##rt
##ell
##om
##he
##ure
##ara
##che
##ney
##zed
##chi
##ik
##ker
##ski
##ini
##ran
##tone
##ica
##jo
##ise
##ung
##ning
##red
##ux
##gh
##hip
##gs
##dale
##bi
##one
##ons
##ary
##ang
##ue
##cy
##ors
##ped
##ber
##and
##ore
##ks
##im
##ded
##vi
##ino
##tz
##tan
##lan
##mann
##tus
##zi
##out
##ating
##gi
##gate
##sky
##water
##her
##nce
##bs
##ek
##tta
##back
##more
##ged
##tive
##izing
##ola
##yn
##res
##idae
##cing
##ens
##ii
##des
##cs
##shi
##sis
##work
##ft
##nia
##van
##lle
##ster
##board
##up
##zer
##gy
##ver
##ac
##ious
##bly
##ied
##su
##vin
##bridge
##ld
##port
##ram
##ities
##ving
##je
##logy
##sm
##tra
##so
##sy
##ora
##ten
##istic
##ics
##ok
##ming
##ett
##ily
##ita
##tors
##ct
##ice
##lia
##em
##isation
##ance
##rin
##ye
##kar
##ened
##ae
##ua
##sk
##ano
##vo
##zing
##ach
##ev
##ology
##ud
##ata
##ick
##ho
##ese
##ru
##rum
##rn
##king
##gar
##zo
##ered
##lis
##dae
##rian
##po
##lli
##ci
##era
##gen
##tti
##sed
##ris
##ves
##ans
##uk
##oy
##hu
##fa
##ible
##ich
##yan
##tory
##ians
##ula
##ins
##ani
##sson
##lt
##hill
##ova
##ston
##ao
##light
##ou
##net
##llo
##ved
##wick
##ned
##nan
##ane
##off
##dra
##ys
##ric
##time
##hn
##ery
##tis
##hl
##pers
##ros
##op
##side
##ties
##rie
##sha
##mm
##ball
##ren
##lus
##cia
##ening
##ique
##ei
##shire
##ock
##ire
##gon
##wan
##cher
##ical
##let
##cha
##fer
##ken
##fish
##ction
##ika
##tar
##med
##ette
##mus
##ites
##tin
##lu
##ix
##ward
##dar
##nts
##yo
##py
##ched
##bach
##down
##fully
##mic
##od
##kov
##ivity
##sing
##ters
##len
##ified
##lon
##oon
##mes
##over
##dan
##mar
##ington
##ona
##ere
##cus
##ab
##lock
##ira
##hs
##vic
##ala
##tre
##ular
##ral
##rus
##ias
##sey
##fe
##wn
##ess
##ew
##dor
##ering
##sley
##ig
##ability
##lar
##burn
##rk
##my
##nie
##ser
##heim
##ware
##ama
##ative
##pin
##hr
##all
##ain
##ked
##feld
##ration
##ven
##our
##ments
##har
##ras
##ena
##ban
##pi
##mon
##ably
##bar
##nik
##low
##bed
##bus
##bert
##ress
##tha
##ska
##ches
##point
##jan
##ella
##bin
##art
##ada
##ges
##ching
##ets
##ph
##ome
##sia
##lay
##ari
##ag
##ions
##yl
##ates
##las
##ida
##tu
##ax
##non
##we
##ord
##bility
##use
##du
##bu
##maker
##ses
##view
##mate
##ec
##ill
##stein
##rat
##ings
##ides
##ene
##und
##og
##lands
##book
##chen
##ologist
##con
##bel
##ack
##master
##nic
##iya
##din
##mp
##ert
##hon
##lie
##ify
##box
##eo
##ual
##san
##osa
##itz
##ator
##hal
##fi
##das
##ulated
##oe
##uous
##ith
##nda
##nk
##ugh
##nis
##aki
##ath
##bird
##com
##ien
##hood
##bad
##war
##ification
##dia
##via
##xi
##els
##zar
##mal
##ceae
##hed
##gue
##tal
##nell
##zy
##cker
##ju
##kan
##ovic
##wi
##sta
##tv
##lly
##stone
##ose
##urs
##cies
##del
##rated
##iel
##zation
##tto
##tions
##tle
##cal
##bank
##dal
##ule
##oid
##works
##nation
##wing
##ap
##ws
##mas
##can
##sville
##ez
##gle
##ising
##sco
##ado
##illa
##pp
##ncy
##ridge
##ray
##ale
##ile
##cc
##rio
##uri
##away
##ulation
##tie
##nna
##una
##dom
##oo
##ima
##tein
##ces
##oma
##wall
##mont
##lyn
##ade
##ship
##yne
##kes
##shan
##orn
##gal
##sburg
##brook
##bling
##iro
##pm
##pan
##zu
##berry
##horn
##als
##zhou
##cio
##une
##bc
##ids
##hus
##tel
##mie
##list
##phone
##ulate
##ography
##ole
##hall
##cho
##ree
##ensis
##inger
##esh
##room
##ito
##iness
##logical
##car
##min
##kh
##bra
##ori
##long
##ois
##izes
##stic
##oc
##nne
##ological
##mia
##win
##nte
##ence
##if
##iers
##yi
##cht
##woman
##val
##gne
##ui
##nus
##tine
##mel
##eau
##hen
##nen
##tas
##borough
##eon
##ode
##ory
##fl
##day
##bal
##die
##lf
##fire
##lam
##born
##ees
##sar
##ex
##bb
##fs
##wski
##af
##like
##dle
##fold
##pes
##aw
##usa
##rah
##lic
##craft
##ute
##tsu
##zen
##gia
##oa
##cion
##oi
##ati
##fied
##iest
##aro
##bing
##los
##ille
##illo
##end
##hurst
##yu
##dis
##row
##cast
##yer
##hy
##abad
##lee
##ela
##ines
##ough
##eus
##cks
##hin
##ben
##ato
##rg
##ero
##lor
##ami
##tch
##mark
##dine
##hart
##nn
##ave
##oni
##ations
##tia
##cation
##logist
##ace
##ios
##vy
##var
##the
##igan
##tian
##fication
##ple
##ller
##awa
##cu
##rm
##uch
##table
##oli
##lessly
##ulating
##ison
##hai
##az
##uro
##aria
##cted
##sion
##iz
##lot
##ques
##lled
##pot
##eck
##sc
##ase
##enberg
##eth
##ht
##oke
##aa
##load
##oria
##hara
##boy
##wind
##eh
##world
##tones
##eri
##try
##ural
##rch
##nberg
##nian
##ats
##kai
##weight
##ents
##wald
##piece
##mba
##air
##ean
##lings
##nu
##mine
##eur
##gie
##ture
##sel
##of
##zes
##ico
##fu
##cat
##rily
##bie
##rick
##bee
##ult
##ichi
##fc
##rra
##bble
##vis
##met
##ants
##nger
##sse
##iana
##gio
##av
##oto
##mond
##iva
##kers
##power
##gent
##rine
##pped
##lene
##ali
##nin
##hole
##ssa
##sin
##eer
##sman
##ip
##card
##gin
##gled
##nder
##ort
##dorf
##zon
##kie
##bia
##eria
##yama
##old
##sch
##ulus
##oh
##bourne
##ox
##ient
##ann
##gated
##nas
##ars
##ancy
##rate
##och
##tum
##dian
##kel
##sberg
##chy
##rton
##ila
##bon
##sie
##nsis
##plane
##borg
##wyn
##hand
##hard
##ifying
##ced
##ern
##rina
##most
##nar
##dge
##ash
##pen
##wara
##cting
##nel
##pel
##rc
##aka
##ency
##ista
##ops
##dt
##eda
##hir
##boat
##lies
##ried
##sal
##fy
##nal
##zzo
##vas
##hing
##ass
##enburg
##are
##atic
##tter
##ub
##aries
##makers
##rst
##eim
##rne
##een
##nor
##ils
##wo
##ont
##ured
##outs
##rr
##face
##rad
##llen
##ote
##aya
##rl
##gu
##yang
##arian
##pus
##iah
##backs
##shing
##uring
##vre
##ander
##rry
##uma
##sworth
##tate
##ele
##dos
##nc
##mu
##rov
##ovich
##flow
##ib
##nse
##hot
##gos
##gus
##oka
##onic
##ein
##nta
##own
##ther
##tric
##wich
##vey
##vable
##zio
##gel
##wen
##mc
##ava
##itt
##onia
##ffer
##ail
##urg
##tation
##quin
##gation
##yr
##nate
##erly
##graphy
##gging
##metric
##making
##gas
##bro
##lman
##zel
##hold
##matic
##quet
##osis
##dell
##ude
##iko
##nch
##bes
##cut
##boro
##stan
##hat
##umi
##lls
##uck
##band
##gun
##lines
##sive
##beck
##ination
##its
##nica
##rna
##front
##lio
##dium
##bbled
##bor
##grave
##sts
##yle
##iv
##gic
##rley
##ots
##ete
##zia
##ef
##rf
##birds
##ield
##olo
##kal
##lers
##ister
##ashi
##cated
##uted
##eta
##vich
##lum
##pal
##ante
##city
##hia
##aj
##cent
##tting
##fort
##rand
##heads
##itive
##pies
##hausen
##foot
##play
##kawa
##ises
##wr
##eed
##uer
##ury
##sp
##keeper
##lling
##gram
##tos
##cott
##nam
##iate
##rich
##zong
##rol
##eng
##tro
##cos
##sus
##uta
##zz
##lice
##roy
##ania
##rius
##cial
##rose
##rous
##inal
##ished
##ctic
##vik
##rta
##gger
##eva
##tree
##iga
##mbo
##elli
##iff
##oning
##ders
##yar
##oda
##court
##inus
##gard
##ously
##nova
##lets
##set
##ibility
##ret
##vie
##zan
##ste
##wal
##garh
##lation
##hra
##bles
##gt
##tc
##nick
##gren
##bre
##bic
##ams
##lish
##leigh
##hler
##idge
##dr
##nde
##rda
##rade
##nto
##ement
##wl
##ool
##ience
##lk
##ep
##ution
##date
##page
##ographic
##itis
##kas
##ische
##lm
##stown
##aux
##mere
##eu
##link
##tina
##ead
##lated
##wer
##hardt
##lina
##zzi
##late
##nga
##ake
##ido
##haus
##anda
##lal
##uan
##gg
##type
##pt
##trom
##hman
##ght
##used
##elia
##eg
##alis
##ages
##uded
##ppa
##lton
##cock
##worthy
##fall
##yon
##hine
##vers
##igo
##ways
##some
##atory
##tered
##uda
##rrell
##ame
##bby
##fest
##ast
##ented
##ided
##fying
##star
##ost
##rod
##uru
##yard
##owing
##dd
##ifies
##ying
##combe
##fly
##flower
##tail
##nese
##nz
##form
##uc
##hian
##fies
##raj
##xton
##hm
##uki
##dley
##shu
##haw
##icus
##wise
##isa
##kis
##zie
##eld
##lp
##urn
##pu
##lov
##uth
##cle
##kins
##aid
##jon
##him
##rre
##nagar
##pling
##lier
##vier
##mouth
##pf
##top
##how
##graph
##ssen
##bone
##dling
##ime
##lah
##park
##bil
##sby
##bat
##rial
##cian
##hoe
##usion
##mir
##uation
##lby
##oll
##rman
##ott
##holder
##lake
##rp
##sl
##rer
##ema
##ively
##vor
##culture
##tead
##oth
##ttes
##hof
##oro
##tics
##rid
##iard
##tera
##sies
##tly
##aan
##jin
##iss
##ear
##dock
##haven
##tical
##ook
##rata
##uit
##rama
##bilities
##hua
##cci
##dad
##sted
##qi
##nted
##ija
##liga
##croft
##ede
##kovic
##rica
##aire
##shed
##pie
##stock
##mma
##vil
##ncies
##eous
##rion
##graphic
##elle
##inate
##rit
##tled
##xia
##ttered
##dic
##eum
##force
##key
##hey
##yam
##pping
##hol
##chan
##berger
##nier
##fo
##lson
##cture
##baum
##ures
##mb
##nium
##law
##hd
##has
##bol
##iving
##ddy
##far
##lav
##rai
##lip
##ically
##hos
##tech
##erty
##pc
##pole
##base
##rist
##path
##iated
##tling
##vs
##oss
##owed
##nton
##rail
##eter
##fan
##sdale
##ility
##lda
##mans
##fields
##avia
##take
##rating
##rb
##pass
##itated
##rey
##lian
##uchi
##thi
##inas
##hale
##girl
##owski
##kha
##rth
##encies
##boards
##nah
##ctive
##tile
##nco
##tron
##moto
##pace
##vent
##bbling
##ello
##tty
##nett
##witz
##iating
##rz
##ffin
##ffed
##ache
##asia
##iting
##mates
##quent
##ond
##cular
##ouse
##tai
##kowski
##pad
##ipe
##cin
##nos
##tam
##nge
##lc
##tton
##ndo
##nstein
##bound
##aking
##burgh
##bbed
##quest
##life
##lius
##mos
##run
##lous
##ingen
##qui
##nson
##wed
##eet
##rik
##gged
##ows
##cup
##nies
##atus
##ais
##bian
##rew
##sters
##orted
##glass
##forth
##mis
##ride
##physics
##frame
##iidae
##itor
##houses
##iano
##cas
##nding
##strom
##hes
##antly
##ogy
##kos
##kka
##acy
##chel
##plate
##aru
##lights
##iri
##uka
##ntal
##jet
##written
##gers
##rity
##ente
##sca
##ingly
##hana
##oft
##ues
##mmer
##sai
##inian
##inated
##uke
##bos
##pton
##uli
##night
##chemical
##kill
##eb
##eal
##tag
##vsky
##bay
##lit
##ug
##yk
##ril
##ech
##right
##sfield
##rky
##zone
##udge
##vel
##lain
##jk
##writer
##hel
##ffe
##vn
##onal
##sto
##turing
##hawks
##code
##wu
##bahn
##ovo
##hic
##mura
##verse
##anza
##bag
##jar
##ndi
##uf
##aga
##had
##azi
##nko
##olved
##nr
##ressed
##lent
##sd
##uto
##dog
##sten
##chev
##cope
##tted
##chus
##dre
##ulous
##gn
##nath
##qua
##bler
##rell
##tated
##rier
##duction
##hc
##rator
##np
##evich
##wig
##cate
##iling
##uel
##coe
##fin
##care
##yas
##grad
##ules
##bit
##ffy
##abe
##rift
##imo
##pop
##tr
##orf
##yre
##ground
##oko
##hor
##hima
##uga
##mity
##tium
##iver
##dc
##inae
##rea
##dh
##ob
##ingham
##uts
##tern
##uated
##dent
##cross
##dicate
##lder
##oat
##genic
##oor
##eno
##itating
##gr
##wc
##gins
##etic
##coat
##wave
##etta
##print
##rak
##bl
##mons
##nard
##kara
##cine
##rel
##hit
##ony
##aging
##wang
##ores
##amp
##dating
##sti
##cts
##game
##rae
##ngo
##cca
##rable
##unt
##static
##wear
##nov
##lana
##ense
##eman
##fm
##rana
##zal
##nay
##cre
##zers
##eration
##ctor
##bine
##tist
##oured
##nti
##piration
##asa
##nza
##ption
##yana
##unk
##rek
##ucci
##ario
##sat
##erated
##suke
##pool
##vd
##vert
##cellular
##nant
##ologists
##hore
##xie
##rock
##ners
##stad
##guchi
##thy
##lem
##omy
##vate
##gating
##jee
##media
##idal
##hora
##gna
##lining
##rgan
##ark
##bius
##gong
##uz
##sian
##not
##group
##bid
##sos
##iger
##rdi
##vision
##oids
##dden
##sz
##cer
##walk
##gles
##dam
##ood
##ske
##hun
##eiro
##outh
##zin
##ono
##adi
##aneous
##bers
##oot
##bbs
##chin
##yuan
##nya
##yev
##yte
##gies
##vid
##zzled
##yx
##rington
##arium
##ota
##iser
##ibly
##lau
##pd
##ieu
##iary
##llar
##athy
##sea
##was
##iche
##ager
##bell
##ike
##ntes
##aurus
##core
##jack
##osh
##uddin
##erie
##jas
##tee
##tock
##cky
##isi
##gler
##sum
##shin
##ailed
##ivating
##nae
##tism
##unce
##rdy
##loaded
##books
##iki
##vale
##geny
##cratic
##dha
##emann
##yah
##athlon
##itate
##ited
##emia
##tier
##eis
##rong
##pate
##atics
##rove
##rice
##gre
##dus
##moor
##rite
##izer
##ope
##gra
##zzle
##oom
##sford
##dham
##sper
##ndra
##dong
##tani
##rix
##eye
##oping
##cap
##polis
##gis
##bir
##tad
##rted
##evic
##rita
##sque
##mobile
##rson
##sity
##von
##oney
##holders
##oned
##lag
##puram
##rds
##rino
##eding
##por
##rma
##cite
##max
##uss
##enko
##icated
##hrer
##fare
##rant
##hoff
##ume
##taking
##gence
##yman
##hya
##lde
##iu
##phic
##ares
##ested
##vina
##cake
##lim
##cards
##cene
##shaw
##agh
##tering
##ych
##hawk
##hang
##cki
##lund
##ffen
##xy
##weed
##rane
##nock
##ulata
##sbury
##chs
##vian
##psy
##morphic
##ull
##ifier
##pr
##uca
##cliffe
##sser
##ards
##yde
##pis
##cked
##ffle
##ryn
##get
##oz
##pol
##using
##ums
##oga
##aine
##screen
##wes
##lined
##gc
##text
##tary
##anga
##hell
##oya
##rden
##tain
##cating
##onne
##gb
##tase
##comb
##ddin
##neck
##yna
##itic
##truct
##jak
##etti
##keeping
##rland
##quist
##hiro
##lich
##aceae
##elo
##word
##edes
##nac
##wart
##gee
##nds
##igh
##cise
##case
##bot
##dies
##lik
##ital
##guard
##psis
##iba
##lift
##xt
##dah
##wy
##iful
##rized
##unda
##hari
##cious
##name
##int
##iled
##hop
##bis
##gling
##ection
##tley
##kumar
##iman
##gible
##balls
##ific
##rative
##iq
##uity
##tem
##ught
##ending
##mbe
##itation
##writing
##kur
##loading
##rgo
##sonic
##oop
##eni
##chal
##llah
##mler
##lity
##osing
##erson
##pper
##ili
##brush
##acle
##ady
##zaki
##ulin
##bolic
##aged
##grapher
##vial
##hwa
##ades
##nous
##itude
##icz
##xa
##ider
##erman
##kell
##uled
##eve
##eres
##rner
##tok
##color
##dly
##ssi
##ometer
##lington
##tility
##adt
##logists
##ight
##rri
##phs
##riation
##rish
##put
##tow
##uce
##rium
##jana
##rring
##tadt
##elin
##kova
##kind
##heimer
##gaard
##oran
##ulo
##olin
##ype
##watch
##ylus
##jah
##mmy
##holm
##tner
##tri
##avi
##irs
##mat
##jit
##eto
##proof
##act
##ories
##bow
##fted
##uration
##dp
##rro
##coming
##mot
##db
##fen
##vant
##cles
##iation
##lion
##ssing
##ulates
##dina
##grant
##rop
##rca
##iom
##leader
##iae
##esis
##rsten
##sb
##cens
##eka
##llan
##shot
##uman
##cic
##ald
##qa
##xed
##eded
##any
##phones
##uo
##kle
##nine
##dhi
##estinal
##oso
##rno
##uche
##lma
##rva
##sable
##vocation
##posed
##cturing
##tres
##rce
##num
##bey
##inating
##ih
##yoshi
##imeter
##bei
##shore
##iable
##leaf
##lace
##oud
##gned
##swell
##sms
##uil
##osition
##ckle
##itzer
##leton
##pine
##minate
##tland
##tore
##bt
##eca
##nched
##borne
##won
##ional
##ads
##entation
##sible
##pia
##imus
##att
##ndon
##child
##lica
##cera
##selle
##par
##plex
##tooth
##gny
##rlin
##cured
##jima
##rter
##oic
##dl
##olate
##iously
##escu
##zhi
##dron
##beat
##bana
##sol
##cape
##hil
##boats
##bbe
##olar
##xide
##uni
##pac
##ease
##omo
##vet
##aud
##iques
##dded
##endra
##hala
##morphism
##cier
##yra
##iso
##ttering
##sic
##ored
##urt
##cats
##sher
##xing
##active
##aca
##pala
##tl
##kon
##west
##kk
##mble
##yuki
##cko
##ln
##grass
##gua
##fr
##pas
##zawa
##vr
##storm
##vu
##sun
##rte
##aba
##lea
##hammer
##neer
##uba
##see
##cken
##henko
##lai
##now
##qing
##gill
##jun
##cd
##ioned
##cote
##hips
##pressed
##cology
##enia
##erry
##nat
##islav
##ink
##wei
##odes
##rar
##rked
##lein
##kled
##vos
##mith
##cke
##thus
##cula
##inski
##br
##post
##ask
##uter
##yya
##mbre
##ntial
##mill
##amine
##while
##jos
##ldon
##chman
##isch
##ust
##ml
##ision
##lord
##ishly
##rks
##holes
##hong
##wife
##jer
##glia
##uin
##rim
##fighter
##gonal
##orescence
##wari
##due
##elt
##dled
##mount
##osi
##lat
##mme
##akes
##etto
##hetic
##urus
##atter
##station
##sef
##press
##acious
##icient
##mur
##gil
##anne
##xes
##llus
##pathy
##hue
##eit
##bate
##lore
##itch
##hea
##phobic
##vati
##sport
##dation
##eyer
##otic
##udy
##kari
##sier
##sei
##gor
##isman
##kling
##ego
##utz
##chule
##nesian
##iol
##market
##xin
##egan
##chet
##user
##ddle
##illon
##xx
##finger
##ulator
##wire
##mour
##atin
##chrome
##ester
##rates
##yria
##llation
##tom
##ulu
##uze
##raz
##ako
##lev
##gau
##bourg
##lles
##rya
##nius
##fight
##hak
##cl
##nham
##iac
##lab
##rber
##sner
##isto
##aran
##mt
##tana
##acies
##atz
##gement
##thest
##ej
##fusion
##orum
##stra
##rred
##vine
##hini
##bies
##eering
##hui
##kee
##nl
##aus
##dition
##notes
##iology
##mology
##isk
##zione
##illy
##naire
##sler
##arts
##imated
##uate
##wley
##ject
##dio
##ods
##ricted
##eti
##ntly
##lane
##ggio
##torm
##oting
##liner
##ush
##ooped
##lage
##rdo
##yen
##zak
##pose
##tur
##enity
##gat
##bara
##zza
##kaya
##raphic
##zam
##ogical
##phine
##fide
##thing
##cars
##ptic
##ibe
##chu
##sio
##aly
##rano
##tious
##oman
##pire
##dable
##aq
##dder
##ologies
##rone
##mani
##rge
##eli
##uting
##cao
##agawa
##yed
##lard
##under
##zzling
##lena
##llum
##phon
##anus
##lb
##yler
##eux
##olis
##astic
##gina
##chia
##obe
##insky
##lett
##lean
##lves
##therapy
##tery
##hire
##nca
##nical
##bet
##icles
##ulia
##mian
##tial
##rle
##erence
##omi
##fulness
##sas
##rwood
##liness
##df
##xley
##ysis
##ffa
##berries
##athic
##lr
##ivo
##erton
##founded
##ulf
##sham
##tries
##tania
##uron
##nology
##mata
##hee
##fle
##udi
##cheng
##achi
##ental
##aves
##twined
##cino
##yal
##bial
##ucible
##ples
##bina
##rned
##auer
##kia
##ogan
##pled
##kim
##lani
##ael
##elled
##onate
##feit
##aur
##cter
##tour
##oir
##rain
##cable
##boarding
##tment
##eville
##gawa
##dry
##rly
##log
##berto
##llin
##breaker
##issa
##rts
##ssel
##dler
##oration
##cule
##ulously
##pura
##gens
##rricular
##oris
##tm
##ytic
##iere
##zine
##ication
##mins
##gold
##uid
##lid
##aby
##ined
##phy
##uld
##liest
##owa
##lom
##eira
##titled
##ggs
##otti
##roud
##iza
##bron
##sr
##diment
##dai
##stick
##wicz
##acio
##asi
##eme
##mail
##working
##smith
##cco
##enbach
##icular
##eson
##stream
##tya
##uber
##factory
##cea
##bard
##ahu
##ivate
##hesion
##rangle
##dridge
##tral
##imate
##dington
##folding
##nesia
##oof
##ppe
##stand
##grove
##manship
##rup
##stituting
##carriage
##lston
##stadt
##wai
##zier
##bria
##plication
##nged
##sam
##belt
##eem
##made
##pro
##nent
##rani
##hesive
##sko
##lts
##lidae
##vation
##gp
##than
##erus
##logies
##rance
##anto
##kr
##vary
##iter
##pired
##avian
##vili
##vir
##eral
##sett
##aling
##biology
##gm
##orus
##bella
##rot
##folia
##llis
##rom
##ount
##wd
##rocity
##acion
##urne
##sor
##icide
##sty
##ilised
##org
##wana
##ghton
##rcle
##mona
##mber
##jiang
##vance
##rogate
##dman
##tenberg
##ffs
##ishment
##ddling
##kor
##lium
##ove
##enstein
##inen
##ones
##uti
##vington
##rella
##ishing
##ossa
##chers
##tung
##phi
##tidae
##cade
##drum
##riz
##hul
##pha
##bino
##resh
##cp
##wine
##vah
##lter
##riding
##ieri
##oku
##ended
##hampton
##jong
##marine
##ivated
##ovsky
##aea
##ivist
##verance
##brate
##ctions
##usions
##omic
##rling
##ange
##horpe
##inations
##roving
##eptive
##moral
##tale
##apa
##pio
##note
##tails
##bas
##nea
##ply
##udes
##pile
##words
##roup
##dm
##cede
##mora
##yt
##rut
##erate
##lva
##ulton
##lini
##rrie
##fighting
##icum
##dim
##llon
##ulla
##dro
##quel
##test
##hiko
##aver
##ghan
##oms
##sho
##saurus
##lating
##wny
##ind
##gall
##ups
##hp
##nall
##kra
##rgos
##tose
##km
##turn
##chang
##mina
##athing
##kley
##izations
##aint
##pet
##hers
##kus
##sant
##hend
##mart
##eley
##ilo
##edd
##ucher
##nging
##heart
##rka
##rsa
##weiler
##unced
##aring
##thorpe
##rave
##bered
##bba
##eric
##arth
##kko
##bush
##aton
##hma
##esa
##centric
##kti
##aith
##ect
##script
##ivism
##erland
##rou
##lco
##xon
##oes
##ever
##bery
##khar
##tet
##stle
##wide
##ogist
##tham
##fp
##taff
##isms
##yp
##rse
##nikov
##js
##uaries
##frey
##amo
##llet
##opsis
##ctric
##rini
##rified
##charged
##aker
##iform
##rgy
##tius
##nburg
##rac
##bha
##hering
##tures
##eber
##zow
##ctus
##aco
##lander
##chfield
##forms
##icides
##lence
##tica
##chment
##lization
##aja
##ganj
##sari
##church
##sf
##fia
##ncia
##ition
##nity
##worm
##ggy
##voking
##lite
##grate
##nets
##alia
##rent
##nitz
##pts
##pta
##bolt
##pheus
##onale
##meter
##placed
##imating
##sche
##ogo
##mony
##gum
##real
##eers
##gam
##elles
##vat
##trick
##uge
##hta
##jn
##race
##slin
##uve
##mac
##ays
##oja
##wheel
##laya
##mics
##pods
##lberg
##ennial
##mit
##rigues
##zquez
##tman
##roid
##relli
##ours
##hdi
##nable
##gues
##zuka
##gley
##agi
##mx
##cis
##rogen
##vot
##ulsive
[...]
